{
  "version": "1.0",
  "truncation": {
    "direction": "Right",
    "max_length": 128,
    "strategy": "LongestFirst",
    "stride": 0
  },
  "padding": {
    "strategy": {
      "Fixed": 128
    },
    "direction": "Right",
    "pad_to_multiple_of": null,
    "pad_id": 0,
    "pad_type_id": 0,
    "pad_token": "[PAD]"
  },
  "added_tokens": [
    {
      "id": 0,
      "content": "[PAD]",
      "single_word": false,
      "lstrip": false,
      "rstrip": false,
      "normalized": false,
      "special": true
    },
    {
      "id": 100,
      "content": "[UNK]",
      "single_word": false,
      "lstrip": false,
      "rstrip": false,
      "normalized": false,
      "special": true
    },
    {
      "id": 101,
      "content": "[CLS]",
      "single_word": false,
      "lstrip": false,
      "rstrip": false,
      "normalized": false,
      "special": true
    },
    {
      "id": 102,
      "content": "[SEP]",
      "single_word": false,
      "lstrip": false,
      "rstrip": false,
      "normalized": false,
      "special": true
    },
    {
      "id": 103,
      "content": "[MASK]",
      "single_word": false,
      "lstrip": false,
      "rstrip": false,
      "normalized": false,
      "special": true
    }
  ],
  "normalizer": {
    "type": "BertNormalizer",
    "clean_text": true,
    "handle_chinese_chars": true,
    "strip_accents": null,
    "lowercase": true
  },
  "pre_tokenizer": {
    "type": "BertPreTokenizer"
  },
  "post_processor": {
    "type": "TemplateProcessing",
    "single": [
      {
        "SpecialToken": {
          "id": "[CLS]",
          "type_id": 0
        }
      },
      {
        "Sequence": {
          "id": "A",
          "type_id": 0
        }
      },
      {
        "SpecialToken": {
          "id": "[SEP]",
          "type_id": 0
        }
      }
    ],
    "pair": [
      {
        "SpecialToken": {
          "id": "[CLS]",
          "type_id": 0
        }
      },
      {
        "Sequence": {
          "id": "A",
          "type_id": 0
        }
      },
      {
        "SpecialToken": {
          "id": "[SEP]",
          "type_id": 0
        }
      },
      {
        "Sequence": {
          "id": "B",
          "type_id": 1
        }
      },
      {
        "SpecialToken": {
          "id": "[SEP]",
          "type_id": 1
        }
      }
    ],
    "special_tokens": {
      "[CLS]": {
        "id": "[CLS]",
        "ids": [
          101
        ],
        "tokens": [
          "[CLS]"
        ]
      },
      "[SEP]": {
        "id": "[SEP]",
        "ids": [
          102
        ],
        "tokens": [
          "[SEP]"
        ]
      }
    }
  },
  "decoder": {
    "type": "WordPiece",
    "prefix": "##",
    "cleanup": true
  },
  "model": {
    "type": "WordPiece",
    "unk_token": "[UNK]",
    "continuing_subword_prefix": "##",
    "max_input_chars_per_word": 100,
    "vocab": {
      "[PAD]": 0,
      "[unused1]": 1,
      "[unused2]": 2,
      "[unused3]": 3,
      "[unused4]": 4,
      "[unused5]": 5,
      "[unused6]": 6,
      "[unused7]": 7,
      "[unused8]": 8,
      "[unused9]": 9,
      "[unused10]": 10,
      "[unused11]": 11,
      "[unused12]": 12,
      "[unused13]": 13,
      "[unused14]": 14,
      "[unused15]": 15,
      "[unused16]": 16,
      "[unused17]": 17,
      "[unused18]": 18,
      "[unused19]": 19,
      "[unused20]": 20,
      "[unused21]": 21,
      "[unused22]": 22,
      "[unused23]": 23,
      "[unused24]": 24,
      "[unused25]": 25,
      "[unused26]": 26,
      "[unused27]": 27,
      "[unused28]": 28,
      "[unused29]": 29,
      "[unused30]": 30,
      "[unused31]": 31,
      "[unused32]": 32,
      "[unused33]": 33,
      "[unused34]": 34,
      "[unused35]": 35,
      "[unused36]": 36,
      "[unused37]": 37,
      "[unused38]": 38,
      "[unused39]": 39,
      "[unused40]": 40,
      "[unused41]": 41,
      "[unused42]": 42,
      "[unused43]": 43,
      "[unused44]": 44,
      "[unused45]": 45,
      "[unused46]": 46,
      "[unused47]": 47,
      "[unused48]": 48,
      "[unused49]": 49,
      "[unused50]": 50,
      "[unused51]": 51,
      "[unused52]": 52,
      "[unused53]": 53,
      "[unused54]": 54,
      "[unused55]": 55,
      "[unused56]": 56,
      "[unused57]": 57,
      "[unused58]": 58,
      "[unused59]": 59,
      "[unused60]": 60,
      "[unused61]": 61,
      "[unused62]": 62,
      "[unused63]": 63,
      "[unused64]": 64,
      "[unused65]": 65,
      "[unused66]": 66,
      "[unused67]": 67,
      "[unused68]": 68,
      "[unused69]": 69,
      "[unused70]": 70,
      "[unused71]": 71,
      "[unused72]": 72,
      "[unused73]": 73,
      "[unused74]": 74,
      "[unused75]": 75,
      "[unused76]": 76,
      "[unused77]": 77,
      "[unused78]": 78,
      "[unused79]": 79,
      "[unused80]": 80,
      "[unused81]": 81,
      "[unused82]": 82,
      "[unused83]": 83,
      "[unused84]": 84,
      "[unused85]": 85,
      "[unused86]": 86,
      "[unused87]": 87,
      "[unused88]": 88,
      "[unused89]": 89,
      "[unused90]": 90,
      "[unused91]": 91,
      "[unused92]": 92,
      "[unused93]": 93,
      "[unused94]": 94,
      "[unused95]": 95,
      "[unused96]": 96,
      "[unused97]": 97,
      "[unused98]": 98,
      "[unused99]": 99,
      "[UNK]": 100,
      "[CLS]": 101,
      "[SEP]": 102,
      "[MASK]": 103,
      "!": 104,
      "\"": 105,
      "#": 106,
      "$": 107,
      "%": 108,
      "&": 109,
      "'": 110,
      "(": 111,
      ")": 112,
      "*": 113,
      "+": 114,
      ",": 115,
      "-": 116,
      ".": 117,
      "/": 118,
      "0": 119,
      "1": 120,
      "2": 121,
      "3": 122,
      "4": 123,
      "5": 124,
      "6": 125,
      "7": 126,
      "8": 127,
      "9": 128,
      ":": 129,
      ";": 130,
      "<": 131,
      "=": 132,
      ">": 133,
      "?": 134,
      "@": 135,
      "[": 136,
      "\\": 137,
      "]": 138,
      "^": 139,
      "_": 140,
      "`": 141,
      "a": 142,
      "b": 143,
      "c": 144,
      "d": 145,
      "e": 146,
      "f": 147,
      "g": 148,
      "h": 149,
      "i": 150,
      "j": 151,
      "k": 152,
      "l": 153,
      "m": 154,
      "n": 155,
      "o": 156,
      "p": 157,
      "q": 158,
      "r": 159,
      "s": 160,
      "t": 161,
      "u": 162,
      "v": 163,
      "w": 164,
      "x": 165,
      "y": 166,
      "z": 167,
      "{": 168,
      "|": 169,
      "}": 170,
      "~": 171,
      "¡": 172,
      "¢": 173,
      "£": 174,
      "¤": 175,
      "¥": 176,
      "¦": 177,
      "§": 178,
      "¨": 179,
      "©": 180,
      "ª": 181,
      "«": 182,
      "¬": 183,
      "®": 184,
      "¯": 185,
      "°": 186,
      "±": 187,
      "²": 188,
      "³": 189,
      "´": 190,
      "µ": 191,
      "¶": 192,
      "·": 193,
      "¸": 194,
      "¹": 195,
      "º": 196,
      "»": 197,
      "¼": 198,
      "½": 199,
      "¾": 200,
      "¿": 201,
      "×": 202,
      "ß": 203,
      "æ": 204,
      "ð": 205,
      "÷": 206,
      "ø": 207,
      "þ": 208,
      "đ": 209,
      "ı": 210,
      "ł": 211,
      "ŋ": 212,
      "œ": 213,
      "ƒ": 214,
      "ɐ": 215,
      "ɑ": 216,
      "ɒ": 217,
      "ɔ": 218,
      "ə": 219,
      "ɛ": 220,
      "ɡ": 221,
      "ɪ": 222,
      "ɾ": 223,
      "ʁ": 224,
      "ʃ": 225,
      "ʊ": 226,
      "ʌ": 227,
      "ʒ": 228,
      "ʔ": 229,
      "ʹ": 230,
      "ʻ": 231,
      "ʼ": 232,
      "ˆ": 233,
      "ˈ": 234,
      "ˌ": 235,
      "ː": 236,
      "˚": 237,
      "˜": 238,
      "α": 239,
      "β": 240,
      "γ": 241,
      "δ": 242,
      "ε": 243,
      "ζ": 244,
      "η": 245,
      "θ": 246,
      "ι": 247,
      "κ": 248,
      "λ": 249,
      "μ": 250,
      "ν": 251,
      "ξ": 252,
      "ο": 253,
      "π": 254,
      "ρ": 255,
      "ς": 256,
      "σ": 257,
      "τ": 258,
      "υ": 259,
      "φ": 260,
      "χ": 261,
      "ψ": 262,
      "ω": 263,
      "а": 264,
      "б": 265,
      "в": 266,
      "г": 267,
      "д": 268,
      "е": 269,
      "ж": 270,
      "з": 271,
      "и": 272,
      "к": 273,
      "л": 274,
      "м": 275,
      "н": 276,
      "о": 277,
      "п": 278,
      "р": 279,
      "с": 280,
      "т": 281,
      "у": 282,
      "ф": 283,
      "х": 284,
      "ц": 285,
      "ч": 286,
      "ш": 287,
      "щ": 288,
      "ъ": 289,
      "ы": 290,
      "ь": 291,
      "э": 292,
      "ю": 293,
      "я": 294,
      "ђ": 295,
      "є": 296,
      "ѕ": 297,
      "і": 298,
      "ј": 299,
      "љ": 300,
      "њ": 301,
      "ћ": 302,
      "џ": 303,
      "ґ": 304,
      "қ": 305,
      "ա": 306,
      "ե": 307,
      "թ": 308,
      "ի": 309,
      "կ": 310,
      "հ": 311,
      "մ": 312,
      "յ": 313,
      "ն": 314,
      "ո": 315,
      "վ": 316,
      "ր": 317,
      "ւ": 318,
      "ք": 319,
      "א": 320,
      "ב": 321,
      "ג": 322,
      "ד": 323,
      "ה": 324,
      "ו": 325,
      "ז": 326,
      "ח": 327,
      "ט": 328,
      "י": 329,
      "ך": 330,
      "כ": 331,
      "ל": 332,
      "ם": 333,
      "מ": 334,
      "ן": 335,
      "נ": 336,
      "ס": 337,
      "ע": 338,
      "ף": 339,
      "פ": 340,
      "ץ": 341,
      "צ": 342,
      "ק": 343,
      "ר": 344,
      "ש": 345,
      "ת": 346,
      "،": 347,
      "ء": 348,
      "ا": 349,
      "ب": 350,
      "ة": 351,
      "ت": 352,
      "ث": 353,
      "ج": 354,
      "ح": 355,
      "خ": 356,
      "د": 357,
      "ذ": 358,
      "ر": 359,
      "ز": 360,
      "س": 361,
      "ش": 362,
      "ص": 363,
      "ض": 364,
      "ط": 365,
      "ظ": 366,
      "ع": 367,
      "غ": 368,
      "ف": 369,
      "ق": 370,
      "ك": 371,
      "ل": 372,
      "م": 373,
      "ن": 374,
      "ه": 375,
      "و": 376,
      "ى": 377,
      "ي": 378,
      "پ": 379,
      "چ": 380,
      "ک": 381,
      "گ": 382,
      "ی": 383,
      "क": 384,
      "ग": 385,
      "ज": 386,
      "ट": 387,
      "त": 388,
      "द": 389,
      "ध": 390,
      "न": 391,
      "प": 392,
      "ब": 393,
      "म": 394,
      "य": 395,
      "र": 396,
      "ल": 397,
      "व": 398,
      "स": 399,
      "ह": 400,
      "ा": 401,
      "ि": 402,
      "ी": 403,
      "ो": 404,
      "।": 405,
      "ং": 406,
      "ব": 407,
      "ল": 408,
      "া": 409,
      "ਾ": 410,
      "અ": 411,
      "આ": 412,
      "ઇ": 413,
      "ઉ": 414,
      "એ": 415,
      "ક": 416,
      "ખ": 417,
      "ગ": 418,
      "ઘ": 419,
      "ચ": 420,
      "છ": 421,
      "જ": 422,
      "ટ": 423,
      "ડ": 424,
      "ણ": 425,
      "ત": 426,
      "થ": 427,
      "દ": 428,
      "ધ": 429,
      "ન": 430,
      "પ": 431,
      "બ": 432,
      "ભ": 433,
      "મ": 434,
      "ય": 435,
      "ર": 436,
      "લ": 437,
      "ળ": 438,
      "વ": 439,
      "શ": 440,
      "ષ": 441,
      "સ": 442,
      "હ": 443,
      "ા": 444,
      "િ": 445,
      "ી": 446,
      "ો": 447,
      "૦": 448,
      "૧": 449,
      "க": 450,
      "ட": 451,
      "த": 452,
      "ந": 453,
      "ன": 454,
      "ப": 455,
      "ம": 456,
      "ய": 457,
      "ர": 458,
      "ற": 459,
      "ல": 460,
      "ள": 461,
      "ழ": 462,
      "வ": 463,
      "ா": 464,
      "ி": 465,
      "ு": 466,
      "ை": 467,
      "ం": 468,
      "గ": 469,
      "త": 470,
      "ర": 471,
      "ల": 472,
      "ు": 473,
      "ಕ": 474,
      "ಡ": 475,
      "ನ": 476,
      "ന": 477,
      "മ": 478,
      "യ": 479,
      "ര": 480,
      "ാ": 481,
      "ി": 482,
      "ก": 483,
      "ค": 484,
      "ง": 485,
      "จ": 486,
      "ด": 487,
      "ต": 488,
      "ท": 489,
      "น": 490,
      "บ": 491,
      "ป": 492,
      "ภ": 493,
      "ม": 494,
      "ย": 495,
      "ร": 496,
      "ล": 497,
      "ว": 498,
      "ส": 499,
      "ห": 500,
      "อ": 501,
      "า": 502,
      "ำ": 503,
      "เ": 504,
      "แ": 505,
      "โ": 506,
      "ไ": 507,
      "າ": 508,
      "ာ": 509,
      "ა": 510,
      "ბ": 511,
      "დ": 512,
      "ე": 513,
      "თ": 514,
      "ი": 515,
      "ლ": 516,
      "მ": 517,
      "ნ": 518,
      "ო": 519,
      "რ": 520,
      "ს": 521,
      "უ": 522,
      "ქ": 523,
      "ᄀ": 524,
      "ᄁ": 525,
      "ᄂ": 526,
      "ᄃ": 527,
      "ᄅ": 528,
      "ᄆ": 529,
      "ᄇ": 530,
      "ᄉ": 531,
      "ᄋ": 532,
      "ᄌ": 533,
      "ᄎ": 534,
      "ᄏ": 535,
      "ᄐ": 536,
      "ᄑ": 537,
      "ᄒ": 538,
      "ᅡ": 539,
      "ᅢ": 540,
      "ᅥ": 541,
      "ᅦ": 542,
      "ᅧ": 543,
      "ᅩ": 544,
      "ᅪ": 545,
      "ᅬ": 546,
      "ᅭ": 547,
      "ᅮ": 548,
      "ᅯ": 549,
      "ᅱ": 550,
      "ᅲ": 551,
      "ᅳ": 552,
      "ᅴ": 553,
      "ᅵ": 554,
      "ᆨ": 555,
      "ᆫ": 556,
      "ᆯ": 557,
      "ᆷ": 558,
      "ᆸ": 559,
      "ᆺ": 560,
      "ᆻ": 561,
      "ᆼ": 562,
      "ᜄ": 563,
      "ᜆ": 564,
      "ᜎ": 565,
      "រ": 566,
      "ា": 567,
      "‐": 568,
      "‑": 569,
      "–": 570,
      "—": 571,
      "―": 572,
      "‖": 573,
      "‘": 574,
      "’": 575,
      "‚": 576,
      "“": 577,
      "”": 578,
      "„": 579,
      "‟": 580,
      "†": 581,
      "‡": 582,
      "•": 583,
      "…": 584,
      "‧": 585,
      "‰": 586,
      "′": 587,
      "″": 588,
      "‹": 589,
      "›": 590,
      "※": 591,
      "€": 592,
      "₱": 593,
      "℃": 594,
      "№": 595,
      "™": 596,
      "←": 597,
      "↑": 598,
      "→": 599,
      "↩": 600,
      "⇒": 601,
      "−": 602,
      "∙": 603,
      "√": 604,
      "∞": 605,
      "≤": 606,
      "⏎": 607,
      "①": 608,
      "②": 609,
      "─": 610,
      "━": 611,
      "│": 612,
      "╋": 613,
      "█": 614,
      "■": 615,
      "▪": 616,
      "▲": 617,
      "▷": 618,
      "►": 619,
      "▼": 620,
      "○": 621,
      "◎": 622,
      "●": 623,
      "◘": 624,
      "★": 625,
      "☆": 626,
      "☺": 627,
      "♠": 628,
      "♡": 629,
      "♣": 630,
      "♥": 631,
      "♦": 632,
      "♪": 633,
      "♫": 634,
      "♯": 635,
      "♰": 636,
      "⚠": 637,
      "⚡": 638,
      "✅": 639,
      "✌": 640,
      "✔": 641,
      "✨": 642,
      "❖": 643,
      "❤": 644,
      "➖": 645,
      "➡": 646,
      "➤": 647,
      "、": 648,
      "。": 649,
      "《": 650,
      "》": 651,
      "「": 652,
      "」": 653,
      "【": 654,
      "】": 655,
      "あ": 656,
      "い": 657,
      "う": 658,
      "え": 659,
      "お": 660,
      "か": 661,
      "き": 662,
      "く": 663,
      "け": 664,
      "こ": 665,
      "さ": 666,
      "し": 667,
      "す": 668,
      "せ": 669,
      "そ": 670,
      "た": 671,
      "ち": 672,
      "っ": 673,
      "つ": 674,
      "て": 675,
      "と": 676,
      "な": 677,
      "に": 678,
      "の": 679,
      "は": 680,
      "ひ": 681,
      "へ": 682,
      "ま": 683,
      "み": 684,
      "め": 685,
      "も": 686,
      "や": 687,
      "よ": 688,
      "ら": 689,
      "り": 690,
      "る": 691,
      "れ": 692,
      "わ": 693,
      "を": 694,
      "ん": 695,
      "ア": 696,
      "ィ": 697,
      "イ": 698,
      "ウ": 699,
      "ェ": 700,
      "エ": 701,
      "オ": 702,
      "カ": 703,
      "キ": 704,
      "ク": 705,
      "ケ": 706,
      "コ": 707,
      "サ": 708,
      "シ": 709,
      "ス": 710,
      "セ": 711,
      "タ": 712,
      "チ": 713,
      "ッ": 714,
      "ツ": 715,
      "テ": 716,
      "ト": 717,
      "ナ": 718,
      "ニ": 719,
      "ネ": 720,
      "ハ": 721,
      "ヒ": 722,
      "フ": 723,
      "ヘ": 724,
      "ホ": 725,
      "マ": 726,
      "ミ": 727,
      "メ": 728,
      "モ": 729,
      "ャ": 730,
      "ュ": 731,
      "ョ": 732,
      "ラ": 733,
      "リ": 734,
      "ル": 735,
      "レ": 736,
      "ロ": 737,
      "ン": 738,
      "・": 739,
      "ー": 740,
      "一": 741,
      "三": 742,
      "上": 743,
      "下": 744,
      "不": 745,
      "世": 746,
      "业": 747,
      "个": 748,
      "中": 749,
      "为": 750,
      "主": 751,
      "之": 752,
      "也": 753,
      "了": 754,
      "事": 755,
      "于": 756,
      "井": 757,
      "交": 758,
      "京": 759,
      "人": 760,
      "他": 761,
      "代": 762,
      "以": 763,
      "们": 764,
      "会": 765,
      "体": 766,
      "作": 767,
      "你": 768,
      "使": 769,
      "供": 770,
      "保": 771,
      "信": 772,
      "修": 773,
      "元": 774,
      "先": 775,
      "入": 776,
      "全": 777,
      "公": 778,
      "其": 779,
      "内": 780,
      "出": 781,
      "分": 782,
      "利": 783,
      "到": 784,
      "制": 785,
      "前": 786,
      "力": 787,
      "功": 788,
      "加": 789,
      "动": 790,
      "包": 791,
      "化": 792,
      "北": 793,
      "區": 794,
      "历": 795,
      "原": 796,
      "及": 797,
      "发": 798,
      "取": 799,
      "口": 800,
      "古": 801,
      "可": 802,
      "台": 803,
      "史": 804,
      "司": 805,
      "各": 806,
      "合": 807,
      "同": 808,
      "名": 809,
      "后": 810,
      "和": 811,
      "品": 812,
      "商": 813,
      "器": 814,
      "国": 815,
      "图": 816,
      "國": 817,
      "在": 818,
      "地": 819,
      "场": 820,
      "城": 821,
      "売": 822,
      "外": 823,
      "多": 824,
      "大": 825,
      "天": 826,
      "失": 827,
      "女": 828,
      "好": 829,
      "子": 830,
      "字": 831,
      "学": 832,
      "安": 833,
      "定": 834,
      "实": 835,
      "客": 836,
      "家": 837,
      "对": 838,
      "小": 839,
      "就": 840,
      "展": 841,
      "島": 842,
      "工": 843,
      "市": 844,
      "常": 845,
      "平": 846,
      "年": 847,
      "店": 848,
      "开": 849,
      "式": 850,
      "当": 851,
      "影": 852,
      "律": 853,
      "後": 854,
      "得": 855,
      "心": 856,
      "快": 857,
      "思": 858,
      "性": 859,
      "息": 860,
      "情": 861,
      "意": 862,
      "愛": 863,
      "感": 864,
      "成": 865,
      "我": 866,
      "所": 867,
      "手": 868,
      "拉": 869,
      "持": 870,
      "提": 871,
      "援": 872,
      "揹": 873,
      "支": 874,
      "放": 875,
      "文": 876,
      "新": 877,
      "方": 878,
      "施": 879,
      "日": 880,
      "明": 881,
      "是": 882,
      "時": 883,
      "更": 884,
      "最": 885,
      "月": 886,
      "有": 887,
      "朝": 888,
      "本": 889,
      "机": 890,
      "来": 891,
      "東": 892,
      "査": 893,
      "棕": 894,
      "業": 895,
      "次": 896,
      "款": 897,
      "正": 898,
      "此": 899,
      "民": 900,
      "水": 901,
      "沙": 902,
      "治": 903,
      "法": 904,
      "活": 905,
      "海": 906,
      "液": 907,
      "港": 908,
      "漢": 909,
      "灵": 910,
      "熊": 911,
      "版": 912,
      "物": 913,
      "特": 914,
      "现": 915,
      "理": 916,
      "生": 917,
      "用": 918,
      "田": 919,
      "由": 920,
      "电": 921,
      "療": 922,
      "白": 923,
      "的": 924,
      "皇": 925,
      "皮": 926,
      "目": 927,
      "相": 928,
      "看": 929,
      "県": 930,
      "真": 931,
      "眼": 932,
      "知": 933,
      "研": 934,
      "社": 935,
      "神": 936,
      "福": 937,
      "移": 938,
      "究": 939,
      "空": 940,
      "站": 941,
      "童": 942,
      "第": 943,
      "等": 944,
      "简": 945,
      "管": 946,
      "系": 947,
      "繁": 948,
      "经": 949,
      "给": 950,
      "网": 951,
      "美": 952,
      "老": 953,
      "者": 954,
      "而": 955,
      "背": 956,
      "胞": 957,
      "能": 958,
      "自": 959,
      "花": 960,
      "血": 961,
      "行": 962,
      "西": 963,
      "要": 964,
      "观": 965,
      "言": 966,
      "語": 967,
      "談": 968,
      "諸": 969,
      "记": 970,
      "语": 971,
      "说": 972,
      "買": 973,
      "资": 974,
      "起": 975,
      "車": 976,
      "輕": 977,
      "这": 978,
      "进": 979,
      "通": 980,
      "道": 981,
      "選": 982,
      "避": 983,
      "部": 984,
      "都": 985,
      "重": 986,
      "量": 987,
      "金": 988,
      "銀": 989,
      "长": 990,
      "防": 991,
      "限": 992,
      "集": 993,
      "難": 994,
      "面": 995,
      "韓": 996,
      "音": 997,
      "領": 998,
      "體": 999,
      "高": 1000,
      "ﬁ": 1001,
      "ﬂ": 1002,
      "ﷺ": 1003,
      "ﷻ": 1004,
      "！": 1005,
      "（": 1006,
      "）": 1007,
      "＊": 1008,
      "，": 1009,
      "－": 1010,
      "／": 1011,
      "：": 1012,
      "；": 1013,
      "？": 1014,
      "ａ": 1015,
      "ｅ": 1016,
      "ｎ": 1017,
      "ｐ": 1018,
      "～": 1019,
      "ﾃ": 1020,
      "￼": 1021,
      "𝖾": 1022,
      "𝗈": 1023,
      "𝗘": 1024,
      "𝗜": 1025,
      "𝗢": 1026,
      "𝗦": 1027,
      "𝘼": 1028,
      "𝙉": 1029,
      "𝚊": 1030,
      "𝚍": 1031,
      "𝚎": 1032,
      "𝚐": 1033,
      "𝚑": 1034,
      "𝚒": 1035,
      "𝚔": 1036,
      "𝚕": 1037,
      "𝚖": 1038,
      "𝚗": 1039,
      "𝚘": 1040,
      "𝚙": 1041,
      "𝚛": 1042,
      "𝚜": 1043,
      "𝚝": 1044,
      "𝚞": 1045,
      "𝚢": 1046,
      "🇭": 1047,
      "🇯": 1048,
      "🇵": 1049,
      "🌟": 1050,
      "🎶": 1051,
      "🏻": 1052,
      "🏼": 1053,
      "🐛": 1054,
      "👊": 1055,
      "👌": 1056,
      "👍": 1057,
      "👏": 1058,
      "👣": 1059,
      "💅": 1060,
      "💊": 1061,
      "💔": 1062,
      "💕": 1063,
      "💖": 1064,
      "💙": 1065,
      "💛": 1066,
      "💜": 1067,
      "💿": 1068,
      "📰": 1069,
      "🔥": 1070,
      "😀": 1071,
      "😁": 1072,
      "😂": 1073,
      "😄": 1074,
      "😅": 1075,
      "😆": 1076,
      "😇": 1077,
      "😈": 1078,
      "😉": 1079,
      "😊": 1080,
      "😋": 1081,
      "😍": 1082,
      "😏": 1083,
      "😒": 1084,
      "😔": 1085,
      "😘": 1086,
      "😛": 1087,
      "😜": 1088,
      "😞": 1089,
      "😠": 1090,
      "😡": 1091,
      "😢": 1092,
      "😦": 1093,
      "😬": 1094,
      "😭": 1095,
      "😱": 1096,
      "🙁": 1097,
      "🙂": 1098,
      "🙄": 1099,
      "🙏": 1100,
      "🤔": 1101,
      "🤣": 1102,
      "🥰": 1103,
      "##e": 1104,
      "##h": 1105,
      "##n": 1106,
      "##d": 1107,
      "##i": 1108,
      "##a": 1109,
      "##k": 1110,
      "##u": 1111,
      "##m": 1112,
      "##t": 1113,
      "##g": 1114,
      "##s": 1115,
      "##o": 1116,
      "##×": 1117,
      "##l": 1118,
      "##p": 1119,
      "##y": 1120,
      "##c": 1121,
      "##r": 1122,
      "##v": 1123,
      "##f": 1124,
      "##b": 1125,
      "##ા": 1126,
      "##દ": 1127,
      "##w": 1128,
      "##6": 1129,
      "##1": 1130,
      "##3": 1131,
      "##0": 1132,
      "##¬": 1133,
      "##x": 1134,
      "##7": 1135,
      "##у": 1136,
      "##к": 1137,
      "##е": 1138,
      "##j": 1139,
      "##q": 1140,
      "##9": 1141,
      "##₱": 1142,
      "##8": 1143,
      "##5": 1144,
      "##z": 1145,
      "##4": 1146,
      "##2": 1147,
      "##о": 1148,
      "##т": 1149,
      "##ы": 1150,
      "##л": 1151,
      "##м": 1152,
      "##ь": 1153,
      "##ה": 1154,
      "##б": 1155,
      "##и": 1156,
      "##н": 1157,
      "##ી": 1158,
      "##આ": 1159,
      "##ઇ": 1160,
      "##ʻ": 1161,
      "##ג": 1162,
      "##נ": 1163,
      "##ו": 1164,
      "##ז": 1165,
      "##ت": 1166,
      "##ر": 1167,
      "##ة": 1168,
      "##р": 1169,
      "##а": 1170,
      "##ж": 1171,
      "##я": 1172,
      "##ᅮ": 1173,
      "##ᄋ": 1174,
      "##ᅥ": 1175,
      "##ᆺ": 1176,
      "##ᅵ": 1177,
      "##ᆸ": 1178,
      "##ᄂ": 1179,
      "##ᄁ": 1180,
      "##ᅡ": 1181,
      "##€": 1182,
      "##œ": 1183,
      "##ב": 1184,
      "##ע": 1185,
      "##י": 1186,
      "##ת": 1187,
      "##ı": 1188,
      "##с": 1189,
      "##מ": 1190,
      "##ר": 1191,
      "##ן": 1192,
      "##æ": 1193,
      "##³": 1194,
      "##¸": 1195,
      "##ળ": 1196,
      "##ય": 1197,
      "##ю": 1198,
      "##ذ": 1199,
      "##ك": 1200,
      "##😀": 1201,
      "##🙏": 1202,
      "##п": 1203,
      "##ט": 1204,
      "##ל": 1205,
      "##😡": 1206,
      "##😘": 1207,
      "##в": 1208,
      "##ђ": 1209,
      "##™": 1210,
      "##ч": 1211,
      "##♠": 1212,
      "##ɔ": 1213,
      "##¦": 1214,
      "##ل": 1215,
      "##ن": 1216,
      "##ق": 1217,
      "##ب": 1218,
      "##г": 1219,
      "##リ": 1220,
      "##シ": 1221,
      "##ャ": 1222,
      "##°": 1223,
      "##ŋ": 1224,
      "##ק": 1225,
      "##ד": 1226,
      "##ם": 1227,
      "##م": 1228,
      "##ه": 1229,
      "##і": 1230,
      "##א": 1231,
      "##ס": 1232,
      "##ン": 1233,
      "##カ": 1234,
      "##ன": 1235,
      "##ற": 1236,
      "##ʌ": 1237,
      "##®": 1238,
      "##д": 1239,
      "##😜": 1240,
      "##ц": 1241,
      "##て": 1242,
      "##も": 1243,
      "##😔": 1244,
      "##כ": 1245,
      "##ا": 1246,
      "##گ": 1247,
      "##ح": 1248,
      "##ん": 1249,
      "##は": 1250,
      "##フ": 1251,
      "##ロ": 1252,
      "##ク": 1253,
      "##を": 1254,
      "##❤": 1255,
      "##د": 1256,
      "##イ": 1257,
      "##チ": 1258,
      "##¾": 1259,
      "##ð": 1260,
      "##´": 1261,
      "##½": 1262,
      "##¼": 1263,
      "##þ": 1264,
      "##¹": 1265,
      "##♦": 1266,
      "##و": 1267,
      "##ي": 1268,
      "##س": 1269,
      "##ع": 1270,
      "##😂": 1271,
      "##з": 1272,
      "##ր": 1273,
      "##ա": 1274,
      "##մ": 1275,
      "##վ": 1276,
      "##ե": 1277,
      "##ː": 1278,
      "##ə": 1279,
      "##લ": 1280,
      "##વ": 1281,
      "##ा": 1282,
      "##پ": 1283,
      "##х": 1284,
      "##な": 1285,
      "##の": 1286,
      "##ᄌ": 1287,
      "##ᄇ": 1288,
      "##ᆫ": 1289,
      "##ש": 1290,
      "##щ": 1291,
      "##ɪ": 1292,
      "##い": 1293,
      "##ʒ": 1294,
      "##ε": 1295,
      "##σ": 1296,
      "##ρ": 1297,
      "##ι": 1298,
      "##ς": 1299,
      "##ˈ": 1300,
      "##ɾ": 1301,
      "##ᄃ": 1302,
      "##ᄅ": 1303,
      "##ᅧ": 1304,
      "##ᅯ": 1305,
      "##ᅭ": 1306,
      "##ᆼ": 1307,
      "##ᆷ": 1308,
      "##ᄉ": 1309,
      "##ᄎ": 1310,
      "##ᄀ": 1311,
      "##ᅪ": 1312,
      "##ω": 1313,
      "##ν": 1314,
      "##ો": 1315,
      "##ج": 1316,
      "##ʼ": 1317,
      "##ᄒ": 1318,
      "##ᆨ": 1319,
      "##ł": 1320,
      "##😠": 1321,
      "##া": 1322,
      "##🏻": 1323,
      "##💔": 1324,
      "##ח": 1325,
      "##𝚗": 1326,
      "##𝚘": 1327,
      "##ћ": 1328,
      "##ѕ": 1329,
      "##¯": 1330,
      "##━": 1331,
      "##ત": 1332,
      "##य": 1333,
      "##ル": 1334,
      "##モ": 1335,
      "##𝘼": 1336,
      "##𝙉": 1337,
      "##μ": 1338,
      "##µ": 1339,
      "##±": 1340,
      "##ш": 1341,
      "##ગ": 1342,
      "##đ": 1343,
      "##🏼": 1344,
      "##☆": 1345,
      "##ј": 1346,
      "##ᅩ": 1347,
      "##ᆯ": 1348,
      "##خ": 1349,
      "##ث": 1350,
      "##ο": 1351,
      "##π": 1352,
      "##マ": 1353,
      "##ト": 1354,
      "##ッ": 1355,
      "##に": 1356,
      "##э": 1357,
      "##ی": 1358,
      "##த": 1359,
      "##ை": 1360,
      "##ப": 1361,
      "##♫": 1362,
      "##ф": 1363,
      "##λ": 1364,
      "##η": 1365,
      "##κ": 1366,
      "##α": 1367,
      "##ف": 1368,
      "##հ": 1369,
      "##յ": 1370,
      "##ն": 1371,
      "##ア": 1372,
      "##ર": 1373,
      "##𝚎": 1374,
      "##𝚊": 1375,
      "##𝚞": 1376,
      "##𝚝": 1377,
      "##𝚒": 1378,
      "##𝚕": 1379,
      "##ɡ": 1380,
      "##ʊ": 1381,
      "##ɑ": 1382,
      "##😊": 1383,
      "##ء": 1384,
      "##𝚜": 1385,
      "##ᅦ": 1386,
      "##ᄑ": 1387,
      "##た": 1388,
      "##し": 1389,
      "##º": 1390,
      "##ک": 1391,
      "##№": 1392,
      "##τ": 1393,
      "##ᅳ": 1394,
      "##👍": 1395,
      "##😁": 1396,
      "##˜": 1397,
      "##😏": 1398,
      "##ش": 1399,
      "##オ": 1400,
      "##ー": 1401,
      "##タ": 1402,
      "##メ": 1403,
      "##ら": 1404,
      "##う": 1405,
      "##こ": 1406,
      "##と": 1407,
      "##ᄐ": 1408,
      "##ᅱ": 1409,
      "##र": 1410,
      "##म": 1411,
      "##प": 1412,
      "##द": 1413,
      "##ક": 1414,
      "##ષ": 1415,
      "##થ": 1416,
      "##ヘ": 1417,
      "##ᆻ": 1418,
      "##♪": 1419,
      "##😅": 1420,
      "##●": 1421,
      "##ø": 1422,
      "##ʁ": 1423,
      "##😭": 1424,
      "##פ": 1425,
      "##ラ": 1426,
      "##શ": 1427,
      "##け": 1428,
      "##ᅲ": 1429,
      "##ض": 1430,
      "##か": 1431,
      "##ต": 1432,
      "##ห": 1433,
      "##ม": 1434,
      "##แ": 1435,
      "##ง": 1436,
      "##ก": 1437,
      "##า": 1438,
      "##ร": 1439,
      "##เ": 1440,
      "##ด": 1441,
      "##น": 1442,
      "##ネ": 1443,
      "##ス": 1444,
      "##エ": 1445,
      "##ａ": 1446,
      "##ィ": 1447,
      "##ヒ": 1448,
      "##お": 1449,
      "##ز": 1450,
      "##ी": 1451,
      "##પ": 1452,
      "##ص": 1453,
      "##サ": 1454,
      "##ェ": 1455,
      "##џ": 1456,
      "##あ": 1457,
      "##り": 1458,
      "##ா": 1459,
      "##ல": 1460,
      "##💙": 1461,
      "##ʃ": 1462,
      "##چ": 1463,
      "##ظ": 1464,
      "##ʔ": 1465,
      "##ニ": 1466,
      "##ハ": 1467,
      "##コ": 1468,
      "##ウ": 1469,
      "##セ": 1470,
      "##¢": 1471,
      "##ｅ": 1472,
      "##ｎ": 1473,
      "##ˌ": 1474,
      "##ま": 1475,
      "##す": 1476,
      "##²": 1477,
      "##ʹ": 1478,
      "##ი": 1479,
      "##ლ": 1480,
      "##ე": 1481,
      "##ბ": 1482,
      "##ర": 1483,
      "##ు": 1484,
      "##💕": 1485,
      "##ى": 1486,
      "##え": 1487,
      "##−": 1488,
      "##👊": 1489,
      "##💊": 1490,
      "##れ": 1491,
      "##く": 1492,
      "##સ": 1493,
      "##મ": 1494,
      "##қ": 1495,
      "##ɛ": 1496,
      "##る": 1497,
      "##よ": 1498,
      "##թ": 1499,
      "##ի": 1500,
      "##կ": 1501,
      "##ચ": 1502,
      "##δ": 1503,
      "##φ": 1504,
      "##ᅢ": 1505,
      "##𝗈": 1506,
      "##დ": 1507,
      "##ᜆ": 1508,
      "##→": 1509,
      "##ミ": 1510,
      "##ュ": 1511,
      "##テ": 1512,
      "##ન": 1513,
      "##ि": 1514,
      "##✌": 1515,
      "##ᄆ": 1516,
      "##©": 1517,
      "##😛": 1518,
      "##ケ": 1519,
      "##त": 1520,
      "##ᄏ": 1521,
      "##υ": 1522,
      "##𝚐": 1523,
      "##𝚛": 1524,
      "##ന": 1525,
      "##ി": 1526,
      "##ാ": 1527,
      "##മ": 1528,
      "##ര": 1529,
      "##ß": 1530,
      "##ણ": 1531,
      "##ం": 1532,
      "##യ": 1533,
      "##😆": 1534,
      "##☺": 1535,
      "##હ": 1536,
      "##ª": 1537,
      "##ਾ": 1538,
      "##⏎": 1539,
      "##せ": 1540,
      "##★": 1541,
      "##क": 1542,
      "##ઘ": 1543,
      "##જ": 1544,
      "##ભ": 1545,
      "##ナ": 1546,
      "##є": 1547,
      "##க": 1548,
      "##வ": 1549,
      "##ள": 1550,
      "##ி": 1551,
      "##ץ": 1552,
      "##♯": 1553,
      "##ひ": 1554,
      "##ツ": 1555,
      "##キ": 1556,
      "##ط": 1557,
      "##♥": 1558,
      "##ξ": 1559,
      "##व": 1560,
      "##न": 1561,
      "##っ": 1562,
      "##χ": 1563,
      "##ટ": 1564,
      "##✨": 1565,
      "##β": 1566,
      "##θ": 1567,
      "##ף": 1568,
      "##צ": 1569,
      "##│": 1570,
      "##𝚑": 1571,
      "##ƒ": 1572,
      "##𝗦": 1573,
      "##𝗘": 1574,
      "##િ": 1575,
      "##ﬁ": 1576,
      "##ո": 1577,
      "##˚": 1578,
      "##ョ": 1579,
      "##や": 1580,
      "##ल": 1581,
      "##き": 1582,
      "##બ": 1583,
      "##ધ": 1584,
      "##ɒ": 1585,
      "##ล": 1586,
      "##👣": 1587,
      "##ホ": 1588,
      "##め": 1589,
      "##🤣": 1590,
      "##ખ": 1591,
      "##¨": 1592,
      "##😞": 1593,
      "##อ": 1594,
      "##จ": 1595,
      "##บ": 1596,
      "##£": 1597,
      "##ｐ": 1598,
      "##そ": 1599,
      "##ட": 1600,
      "##ம": 1601,
      "##ﾃ": 1602,
      "##😉": 1603,
      "##😍": 1604,
      "##γ": 1605,
      "##¤": 1606,
      "##ᅬ": 1607,
      "##ำ": 1608,
      "##ป": 1609,
      "##ไ": 1610,
      "##ு": 1611,
      "##ქ": 1612,
      "##ა": 1613,
      "##რ": 1614,
      "##თ": 1615,
      "##უ": 1616,
      "##ნ": 1617,
      "##ს": 1618,
      "##ო": 1619,
      "##ং": 1620,
      "##ब": 1621,
      "##स": 1622,
      "##ट": 1623,
      "##غ": 1624,
      "##ך": 1625,
      "##■": 1626,
      "##レ": 1627,
      "##さ": 1628,
      "##ो": 1629,
      "##わ": 1630,
      "##ւ": 1631,
      "##њ": 1632,
      "##ค": 1633,
      "##โ": 1634,
      "##ว": 1635,
      "##😬": 1636,
      "##👏": 1637,
      "##ল": 1638,
      "##ภ": 1639,
      "##ท": 1640,
      "##ย": 1641,
      "##ք": 1642,
      "##💿": 1643,
      "##😋": 1644,
      "##ﬂ": 1645,
      "##💛": 1646,
      "##ನ": 1647,
      "##𝚍": 1648,
      "##૦": 1649,
      "##త": 1650,
      "##÷": 1651,
      "##𝖾": 1652,
      "##ґ": 1653,
      "##🇭": 1654,
      "##🇵": 1655,
      "##ъ": 1656,
      "##ய": 1657,
      "##ர": 1658,
      "##⚡": 1659,
      "##🤔": 1660,
      "##へ": 1661,
      "##～": 1662,
      "##😢": 1663,
      "##ɐ": 1664,
      "##ల": 1665,
      "##గ": 1666,
      "##ज": 1667,
      "##█": 1668,
      "##℃": 1669,
      "##અ": 1670,
      "##∞": 1671,
      "##ာ": 1672,
      "##𝚢": 1673,
      "##ា": 1674,
      "##រ": 1675,
      "##າ": 1676,
      "##ડ": 1677,
      "##ઉ": 1678,
      "##ந": 1679,
      "##ಡ": 1680,
      "##ち": 1681,
      "##𝚖": 1682,
      "##ಕ": 1683,
      "##✔": 1684,
      "##𝚙": 1685,
      "##ழ": 1686,
      "##😈": 1687,
      "##𝚔": 1688,
      "##ψ": 1689,
      "##😄": 1690,
      "##ব": 1691,
      "##👌": 1692,
      "##მ": 1693,
      "##○": 1694,
      "##ส": 1695,
      "##ᅴ": 1696,
      "##➡": 1697,
      "##¥": 1698,
      "##🥰": 1699,
      "##♡": 1700,
      "##み": 1701,
      "##─": 1702,
      "##ζ": 1703,
      "##つ": 1704,
      "##ध": 1705,
      "##🌟": 1706,
      "##ह": 1707,
      "##🎶": 1708,
      "##√": 1709,
      "##►": 1710,
      "##ग": 1711,
      "##∙": 1712,
      "##એ": 1713,
      "##љ": 1714,
      "##😇": 1715,
      "##૧": 1716,
      "##ᜄ": 1717,
      "##ᜎ": 1718,
      "##ˆ": 1719,
      "##▼": 1720,
      "##🙄": 1721,
      "##😒": 1722,
      "##📰": 1723,
      "##𝗢": 1724,
      "##🙁": 1725,
      "##છ": 1726,
      "##😱": 1727,
      "##🐛": 1728,
      "##￼": 1729,
      "##🔥": 1730,
      "##➖": 1731,
      "##𝗜": 1732,
      "##②": 1733,
      "##◘": 1734,
      "##💖": 1735,
      "##✅": 1736,
      "##🙂": 1737,
      "##ng": 1738,
      "##an": 1739,
      "##ang": 1740,
      "sa": 1741,
      "na": 1742,
      "##in": 1743,
      "##al": 1744,
      "ng": 1745,
      "##ag": 1746,
      "##at": 1747,
      "##ar": 1748,
      "ang": 1749,
      "##on": 1750,
      "##er": 1751,
      "##as": 1752,
      "##il": 1753,
      "##ay": 1754,
      "##it": 1755,
      "##am": 1756,
      "##ing": 1757,
      "th": 1758,
      "##ga": 1759,
      "##en": 1760,
      "##es": 1761,
      "mga": 1762,
      "##ak": 1763,
      "##or": 1764,
      "##is": 1765,
      "at": 1766,
      "the": 1767,
      "##ong": 1768,
      "##ah": 1769,
      "##ap": 1770,
      "##ul": 1771,
      "##ab": 1772,
      "##aw": 1773,
      "pag": 1774,
      "##ed": 1775,
      "ay": 1776,
      "##un": 1777,
      "##iy": 1778,
      "in": 1779,
      "an": 1780,
      "##to": 1781,
      "is": 1782,
      "##ro": 1783,
      "##ig": 1784,
      "##ad": 1785,
      "##us": 1786,
      "##um": 1787,
      "##ic": 1788,
      "##id": 1789,
      "##os": 1790,
      "##el": 1791,
      "##ion": 1792,
      "of": 1793,
      "##ent": 1794,
      "##ur": 1795,
      "##ik": 1796,
      "to": 1797,
      "##ung": 1798,
      "##ol": 1799,
      "##ut": 1800,
      "par": 1801,
      "##im": 1802,
      "##re": 1803,
      "##ip": 1804,
      "nag": 1805,
      "##ot": 1806,
      "##om": 1807,
      "and": 1808,
      "##iya": 1809,
      "##di": 1810,
      "##et": 1811,
      "##ir": 1812,
      "re": 1813,
      "mag": 1814,
      "ni": 1815,
      "kan": 1816,
      "isang": 1817,
      "##ib": 1818,
      "pa": 1819,
      "##ilang": 1820,
      "##le": 1821,
      "may": 1822,
      "hin": 1823,
      "##ala": 1824,
      "al": 1825,
      "##uk": 1826,
      "##ct": 1827,
      "para": 1828,
      "si": 1829,
      "##ho": 1830,
      "##ila": 1831,
      "hindi": 1832,
      "ito": 1833,
      "##and": 1834,
      "##ers": 1835,
      "##od": 1836,
      "kung": 1837,
      "pro": 1838,
      "pang": 1839,
      "##em": 1840,
      "##ug": 1841,
      "##ac": 1842,
      "nak": 1843,
      "ak": 1844,
      "##yon": 1845,
      "##ub": 1846,
      "nam": 1847,
      "it": 1848,
      "pin": 1849,
      "##iv": 1850,
      "##ist": 1851,
      "##ation": 1852,
      "bu": 1853,
      "kay": 1854,
      "as": 1855,
      "for": 1856,
      "##ya": 1857,
      "##ant": 1858,
      "st": 1859,
      "on": 1860,
      "kas": 1861,
      "ma": 1862,
      "##up": 1863,
      "mar": 1864,
      "##ito": 1865,
      "ta": 1866,
      "no": 1867,
      "##ula": 1868,
      "##ill": 1869,
      "sin": 1870,
      "ib": 1871,
      "de": 1872,
      "mas": 1873,
      "ar": 1874,
      "##ano": 1875,
      "##yang": 1876,
      "un": 1877,
      "be": 1878,
      "mal": 1879,
      "##ity": 1880,
      "##ter": 1881,
      "##res": 1882,
      "##ok": 1883,
      "##amang": 1884,
      "pagk": 1885,
      "mak": 1886,
      "##awa": 1887,
      "ch": 1888,
      "##yo": 1889,
      "man": 1890,
      "mat": 1891,
      "##st": 1892,
      "ko": 1893,
      "ka": 1894,
      "pam": 1895,
      "##ilip": 1896,
      "##ce": 1897,
      "##lo": 1898,
      "##ment": 1899,
      "##ih": 1900,
      "nang": 1901,
      "##ans": 1902,
      "se": 1903,
      "hal": 1904,
      "##ort": 1905,
      "##ahil": 1906,
      "up": 1907,
      "##ov": 1908,
      "tr": 1909,
      "he": 1910,
      "niya": 1911,
      "##est": 1912,
      "##ia": 1913,
      "nat": 1914,
      "siya": 1915,
      "kat": 1916,
      "##pin": 1917,
      "pan": 1918,
      "dahil": 1919,
      "com": 1920,
      "##ch": 1921,
      "##pe": 1922,
      "##uw": 1923,
      "con": 1924,
      "##ly": 1925,
      "kanyang": 1926,
      "lang": 1927,
      "##uh": 1928,
      "##th": 1929,
      "naman": 1930,
      "##ie": 1931,
      "that": 1932,
      "kap": 1933,
      "##alang": 1934,
      "##ita": 1935,
      "##iw": 1936,
      "##av": 1937,
      "20": 1938,
      "##iyang": 1939,
      "per": 1940,
      "##ate": 1941,
      "ph": 1942,
      "bag": 1943,
      "##op": 1944,
      "##ob": 1945,
      "or": 1946,
      "said": 1947,
      "##ayan": 1948,
      "##ial": 1949,
      "##oy": 1950,
      "##und": 1951,
      "##ahan": 1952,
      "##oc": 1953,
      "mula": 1954,
      "##alag": 1955,
      "##og": 1956,
      "ne": 1957,
      "##ain": 1958,
      "am": 1959,
      "##yong": 1960,
      "di": 1961,
      "##ice": 1962,
      "upang": 1963,
      "rin": 1964,
      "##ast": 1965,
      "sing": 1966,
      "##ina": 1967,
      "wh": 1968,
      "##pap": 1969,
      "##ith": 1970,
      "##asyon": 1971,
      "il": 1972,
      "##sa": 1973,
      "sh": 1974,
      "##ama": 1975,
      "##ata": 1976,
      "##ue": 1977,
      "##alak": 1978,
      "##ari": 1979,
      "co": 1980,
      "ako": 1981,
      "po": 1982,
      "##te": 1983,
      "##ud": 1984,
      "##ern": 1985,
      "with": 1986,
      "##ine": 1987,
      "en": 1988,
      "im": 1989,
      "le": 1990,
      "##tr": 1991,
      "noong": 1992,
      "we": 1993,
      "19": 1994,
      "din": 1995,
      "bilang": 1996,
      "##angg": 1997,
      "##aba": 1998,
      "ex": 1999,
      "mo": 2000,
      "##ere": 2001,
      "##ess": 2002,
      "kam": 2003,
      "ab": 2004,
      "##igh": 2005,
      "##ahat": 2006,
      "##ili": 2007,
      "kab": 2008,
      "um": 2009,
      "nito": 2010,
      "halamang": 2011,
      "singaw": 2012,
      "##itan": 2013,
      "##ard": 2014,
      "pat": 2015,
      "pres": 2016,
      "tin": 2017,
      "are": 2018,
      "ad": 2019,
      "##orm": 2020,
      "##ens": 2021,
      "##ies": 2022,
      "##ino": 2023,
      "tao": 2024,
      "kanilang": 2025,
      "##aka": 2026,
      "city": 2027,
      "##ks": 2028,
      "kah": 2029,
      "##abi": 2030,
      "##apos": 2031,
      "##hok": 2032,
      "ap": 2033,
      "##ri": 2034,
      "##end": 2035,
      "buhok": 2036,
      "kar": 2037,
      "##port": 2038,
      "##ive": 2039,
      "##amit": 2040,
      "##aan": 2041,
      "philip": 2042,
      "##alan": 2043,
      "by": 2044,
      "philippin": 2045,
      "kaya": 2046,
      "yo": 2047,
      "will": 2048,
      "kal": 2049,
      "gin": 2050,
      "##iz": 2051,
      "##alaw": 2052,
      "op": 2053,
      "pl": 2054,
      "##ating": 2055,
      "res": 2056,
      "tim": 2057,
      "##ust": 2058,
      "san": 2059,
      "##rom": 2060,
      "##aman": 2061,
      "##apat": 2062,
      "##int": 2063,
      "##unt": 2064,
      "##ow": 2065,
      "mah": 2066,
      "##ver": 2067,
      "lahat": 2068,
      "##uko": 2069,
      "te": 2070,
      "sila": 2071,
      "ngay": 2072,
      "##if": 2073,
      "isa": 2074,
      "pagb": 2075,
      "kin": 2076,
      "ik": 2077,
      "pr": 2078,
      "off": 2079,
      "##ian": 2080,
      "201": 2081,
      "tum": 2082,
      "nila": 2083,
      "was": 2084,
      "##ident": 2085,
      "from": 2086,
      "##ore": 2087,
      "so": 2088,
      "##ost": 2089,
      "kuko": 2090,
      "##awan": 2091,
      "##00": 2092,
      "##alo": 2093,
      "iba": 2094,
      "lab": 2095,
      "sal": 2096,
      "ag": 2097,
      "##art": 2098,
      "##abang": 2099,
      "##ff": 2100,
      "##amot": 2101,
      "bat": 2102,
      "pol": 2103,
      "dr": 2104,
      "##aro": 2105,
      "nap": 2106,
      "##uan": 2107,
      "##amp": 2108,
      "##io": 2109,
      "bin": 2110,
      "##ulong": 2111,
      "##so": 2112,
      "maa": 2113,
      "pags": 2114,
      "pero": 2115,
      "bah": 2116,
      "manila": 2117,
      "##aya": 2118,
      "##ight": 2119,
      "##aring": 2120,
      "mab": 2121,
      "paano": 2122,
      "##ado": 2123,
      "not": 2124,
      "##ma": 2125,
      "pagg": 2126,
      "##ary": 2127,
      "comm": 2128,
      "me": 2129,
      "##eb": 2130,
      "pagt": 2131,
      "ser": 2132,
      "sum": 2133,
      "##qu": 2134,
      "min": 2135,
      "lo": 2136,
      "us": 2137,
      "##ure": 2138,
      "sab": 2139,
      "walang": 2140,
      "##ave": 2141,
      "##yan": 2142,
      "sho": 2143,
      "##pl": 2144,
      "bar": 2145,
      "##asan": 2146,
      "ayon": 2147,
      "sus": 2148,
      "##anda": 2149,
      "##ional": 2150,
      "do": 2151,
      "lum": 2152,
      "dis": 2153,
      "gr": 2154,
      "magk": 2155,
      "this": 2156,
      "##emb": 2157,
      "##ction": 2158,
      "maram": 2159,
      "tag": 2160,
      "##ika": 2161,
      "pagpap": 2162,
      "wor": 2163,
      "pas": 2164,
      "##aling": 2165,
      "map": 2166,
      "lamang": 2167,
      "ba": 2168,
      "sup": 2169,
      "ngayon": 2170,
      "##ear": 2171,
      "##ell": 2172,
      "##ond": 2173,
      "ano": 2174,
      "##ibig": 2175,
      "##ide": 2176,
      "reg": 2177,
      "##iko": 2178,
      "##ra": 2179,
      "bans": 2180,
      "pamam": 2181,
      "##ase": 2182,
      "ipin": 2183,
      "##alaga": 2184,
      "pagl": 2185,
      "inter": 2186,
      "##agan": 2187,
      "kum": 2188,
      "##ult": 2189,
      "part": 2190,
      "cl": 2191,
      "##alik": 2192,
      "##ism": 2193,
      "##ayo": 2194,
      "##all": 2195,
      "ac": 2196,
      "nasa": 2197,
      "pal": 2198,
      "sc": 2199,
      "have": 2200,
      "nags": 2201,
      "nga": 2202,
      "##ha": 2203,
      "sam": 2204,
      "##ungk": 2205,
      "tul": 2206,
      "##ek": 2207,
      "araw": 2208,
      "pilip": 2209,
      "##ihan": 2210,
      "mad": 2211,
      "ibang": 2212,
      "##alawang": 2213,
      "##uro": 2214,
      "br": 2215,
      "diy": 2216,
      "##eng": 2217,
      "##amb": 2218,
      "act": 2219,
      "sp": 2220,
      "##ilangan": 2221,
      "wala": 2222,
      "dep": 2223,
      "##asa": 2224,
      "##ose": 2225,
      "gov": 2226,
      "med": 2227,
      "yung": 2228,
      "##na": 2229,
      "##co": 2230,
      "es": 2231,
      "hangg": 2232,
      "##ana": 2233,
      "##agd": 2234,
      "bul": 2235,
      "their": 2236,
      "##der": 2237,
      "sar": 2238,
      "has": 2239,
      "go": 2240,
      "##ubl": 2241,
      "##inas": 2242,
      "year": 2243,
      "kr": 2244,
      "est": 2245,
      "##agawa": 2246,
      "##itong": 2247,
      "##ara": 2248,
      "new": 2249,
      "car": 2250,
      "mask": 2251,
      "##les": 2252,
      "##ect": 2253,
      "govern": 2254,
      "ilang": 2255,
      "anak": 2256,
      "nas": 2257,
      "buh": 2258,
      "##uc": 2259,
      "##agi": 2260,
      "pinak": 2261,
      "##unit": 2262,
      "philippines": 2263,
      "##ich": 2264,
      "##ays": 2265,
      "cr": 2266,
      "##her": 2267,
      "saan": 2268,
      "##man": 2269,
      "##ento": 2270,
      "niyang": 2271,
      "ed": 2272,
      "##imb": 2273,
      "##idad": 2274,
      "##one": 2275,
      "sec": 2276,
      "you": 2277,
      "but": 2278,
      "kasi": 2279,
      "ro": 2280,
      "##ement": 2281,
      "em": 2282,
      "bansa": 2283,
      "all": 2284,
      "##ors": 2285,
      "rel": 2286,
      "sen": 2287,
      "her": 2288,
      "hanggang": 2289,
      "##aga": 2290,
      "they": 2291,
      "##ulang": 2292,
      "##abas": 2293,
      "imp": 2294,
      "pagkak": 2295,
      "##ulat": 2296,
      "##gr": 2297,
      "##ign": 2298,
      "iyong": 2299,
      "paggamot": 2300,
      "also": 2301,
      "buhay": 2302,
      "##ance": 2303,
      "sak": 2304,
      "##iyon": 2305,
      "##uring": 2306,
      "fr": 2307,
      "nan": 2308,
      "pak": 2309,
      "panah": 2310,
      "bum": 2311,
      "bal": 2312,
      "##day": 2313,
      "##uter": 2314,
      "##use": 2315,
      "##angk": 2316,
      "qu": 2317,
      "siyang": 2318,
      "his": 2319,
      "naging": 2320,
      "president": 2321,
      "##unod": 2322,
      "maaaring": 2323,
      "inc": 2324,
      "diyos": 2325,
      "##uld": 2326,
      "##ile": 2327,
      "dito": 2328,
      "pinag": 2329,
      "##ome": 2330,
      "##bang": 2331,
      "##age": 2332,
      "habang": 2333,
      "can": 2334,
      "##atay": 2335,
      "pe": 2336,
      "rec": 2337,
      "af": 2338,
      "##ons": 2339,
      "##ace": 2340,
      "paras": 2341,
      "##iew": 2342,
      "##ord": 2343,
      "bak": 2344,
      "bas": 2345,
      "##ago": 2346,
      "nagk": 2347,
      "##una": 2348,
      "##ach": 2349,
      "##ec": 2350,
      "paa": 2351,
      "gum": 2352,
      "nab": 2353,
      "aga": 2354,
      "##usto": 2355,
      "##ress": 2356,
      "rev": 2357,
      "pos": 2358,
      "##ite": 2359,
      "##isyon": 2360,
      "##iging": 2361,
      "##alaki": 2362,
      "dire": 2363,
      "dapat": 2364,
      "##apag": 2365,
      "##ali": 2366,
      "government": 2367,
      "##air": 2368,
      "##ack": 2369,
      "laban": 2370,
      "kahit": 2371,
      "##awag": 2372,
      "who": 2373,
      "prov": 2374,
      "##agitan": 2375,
      "##han": 2376,
      "##ical": 2377,
      "##apan": 2378,
      "##aroon": 2379,
      "##ery": 2380,
      "##inal": 2381,
      "##pan": 2382,
      "##ilala": 2383,
      "bo": 2384,
      "fo": 2385,
      "##uha": 2386,
      "kanya": 2387,
      "kapag": 2388,
      "taon": 2389,
      "ngunit": 2390,
      "##uhan": 2391,
      "##ld": 2392,
      "##tor": 2393,
      "##ations": 2394,
      "##unan": 2395,
      "out": 2396,
      "kasama": 2397,
      "pamamagitan": 2398,
      "maging": 2399,
      "##ated": 2400,
      "dalawang": 2401,
      "ass": 2402,
      "##pek": 2403,
      "10": 2404,
      "##ulo": 2405,
      "##akas": 2406,
      "##ayag": 2407,
      "##ind": 2408,
      "##alim": 2409,
      "pap": 2410,
      "##de": 2411,
      "taong": 2412,
      "##ugh": 2413,
      "aw": 2414,
      "philippine": 2415,
      "jo": 2416,
      "##istr": 2417,
      "show": 2418,
      "mon": 2419,
      "sina": 2420,
      "she": 2421,
      "ip": 2422,
      "police": 2423,
      "mil": 2424,
      "tat": 2425,
      "##atapos": 2426,
      "##erson": 2427,
      "gu": 2428,
      "sinabi": 2429,
      "##ence": 2430,
      "##tos": 2431,
      "##per": 2432,
      "##dib": 2433,
      "duter": 2434,
      "##enc": 2435,
      "gan": 2436,
      "duterte": 2437,
      "pilipinas": 2438,
      "tungk": 2439,
      "##ene": 2440,
      "loob": 2441,
      "##ura": 2442,
      "##eral": 2443,
      "ho": 2444,
      "##iss": 2445,
      "unang": 2446,
      "national": 2447,
      "##alit": 2448,
      "##iling": 2449,
      "rep": 2450,
      "hum": 2451,
      "##olo": 2452,
      "nagb": 2453,
      "##angga": 2454,
      "bata": 2455,
      "sub": 2456,
      "baba": 2457,
      "pum": 2458,
      "ev": 2459,
      "tw": 2460,
      "panahon": 2461,
      "prod": 2462,
      "##ero": 2463,
      "##uth": 2464,
      "namin": 2465,
      "##cial": 2466,
      "oper": 2467,
      "big": 2468,
      "dal": 2469,
      "were": 2470,
      "ant": 2471,
      "##awala": 2472,
      "alam": 2473,
      "coun": 2474,
      "##ish": 2475,
      "maraming": 2476,
      "one": 2477,
      "##abing": 2478,
      "gro": 2479,
      "natin": 2480,
      "##anong": 2481,
      "##atag": 2482,
      "nagp": 2483,
      "pre": 2484,
      "del": 2485,
      "cor": 2486,
      "##go": 2487,
      "##ail": 2488,
      "sur": 2489,
      "matapos": 2490,
      "cov": 2491,
      "##aas": 2492,
      "kom": 2493,
      "dib": 2494,
      "its": 2495,
      "##iwan": 2496,
      "##ump": 2497,
      "bago": 2498,
      "loc": 2499,
      "nagt": 2500,
      "our": 2501,
      "##ista": 2502,
      "bagong": 2503,
      "##ther": 2504,
      "itin": 2505,
      "##apit": 2506,
      "pagh": 2507,
      "my": 2508,
      "ele": 2509,
      "mang": 2510,
      "##aran": 2511,
      "lik": 2512,
      "cont": 2513,
      "##act": 2514,
      "##ret": 2515,
      "offic": 2516,
      "pinakam": 2517,
      "rem": 2518,
      "##ada": 2519,
      "mayro": 2520,
      "##are": 2521,
      "add": 2522,
      "dum": 2523,
      "aking": 2524,
      "##ato": 2525,
      "ter": 2526,
      "publ": 2527,
      "tungkol": 2528,
      "itong": 2529,
      "timbang": 2530,
      "##arap": 2531,
      "daw": 2532,
      "ul": 2533,
      "##tim": 2534,
      "##da": 2535,
      "##abah": 2536,
      "progr": 2537,
      "hap": 2538,
      "##alth": 2539,
      "kami": 2540,
      "##ihin": 2541,
      "##vel": 2542,
      "##ual": 2543,
      "##la": 2544,
      "work": 2545,
      "##angan": 2546,
      "nakak": 2547,
      "##low": 2548,
      "kong": 2549,
      "worm": 2550,
      "dibdib": 2551,
      "more": 2552,
      "##ber": 2553,
      "000": 2554,
      "after": 2555,
      "fir": 2556,
      "baw": 2557,
      "col": 2558,
      "##awin": 2559,
      "##angay": 2560,
      "##ipag": 2561,
      "##uling": 2562,
      "kon": 2563,
      "##ep": 2564,
      "gam": 2565,
      "talaga": 2566,
      "##uli": 2567,
      "##ismo": 2568,
      "nitong": 2569,
      "12": 2570,
      "##agamit": 2571,
      "##ilya": 2572,
      "##bo": 2573,
      "prob": 2574,
      "##ao": 2575,
      "##try": 2576,
      "depart": 2577,
      "gen": 2578,
      "malak": 2579,
      "##ve": 2580,
      "pangk": 2581,
      "time": 2582,
      "##ire": 2583,
      "pagkatapos": 2584,
      "##able": 2585,
      "##ions": 2586,
      "##wa": 2587,
      "just": 2588,
      "tal": 2589,
      "ating": 2590,
      "kaniyang": 2591,
      "##ief": 2592,
      "sim": 2593,
      "mags": 2594,
      "##ree": 2595,
      "pun": 2596,
      "tak": 2597,
      "spe": 2598,
      "18": 2599,
      "which": 2600,
      "ban": 2601,
      "bahagi": 2602,
      "##eh": 2603,
      "art": 2604,
      "##ese": 2605,
      "##urs": 2606,
      "##ca": 2607,
      "inf": 2608,
      "cent": 2609,
      "filip": 2610,
      "katawan": 2611,
      "bayan": 2612,
      "ing": 2613,
      "##ular": 2614,
      "sabi": 2615,
      "##uloy": 2616,
      "trans": 2617,
      "##igay": 2618,
      "##igit": 2619,
      "ind": 2620,
      "##itang": 2621,
      "ins": 2622,
      "##ge": 2623,
      "sap": 2624,
      "##zon": 2625,
      "department": 2626,
      "##yal": 2627,
      "dec": 2628,
      "lib": 2629,
      "##uto": 2630,
      "bahay": 2631,
      "gusto": 2632,
      "nar": 2633,
      "bagay": 2634,
      "##sod": 2635,
      "comp": 2636,
      "##ahang": 2637,
      "buong": 2638,
      "tinat": 2639,
      "##isa": 2640,
      "##pect": 2641,
      "mam": 2642,
      "tulad": 2643,
      "review": 2644,
      "##ne": 2645,
      "person": 2646,
      "nagpap": 2647,
      "##gan": 2648,
      "##awang": 2649,
      "nakat": 2650,
      "15": 2651,
      "##long": 2652,
      "met": 2653,
      "##asal": 2654,
      "covid": 2655,
      "##ins": 2656,
      "lov": 2657,
      "health": 2658,
      "la": 2659,
      "inv": 2660,
      "drug": 2661,
      "id": 2662,
      "el": 2663,
      "11": 2664,
      "sig": 2665,
      "nil": 2666,
      "hel": 2667,
      "babae": 2668,
      "pul": 2669,
      "##ry": 2670,
      "fac": 2671,
      "##andang": 2672,
      "there": 2673,
      "silang": 2674,
      "##iwala": 2675,
      "##ert": 2676,
      "##ents": 2677,
      "barangay": 2678,
      "gay": 2679,
      "##ilan": 2680,
      "##wn": 2681,
      "##ugan": 2682,
      "law": 2683,
      "##ict": 2684,
      "##uo": 2685,
      "##illion": 2686,
      "nagl": 2687,
      "wo": 2688,
      "##era": 2689,
      "fe": 2690,
      "other": 2691,
      "raw": 2692,
      "##onom": 2693,
      "##ahala": 2694,
      "##ory": 2695,
      "lim": 2696,
      "##ahayag": 2697,
      "##anggap": 2698,
      "##abaho": 2699,
      "##ugar": 2700,
      "##ati": 2701,
      "inst": 2702,
      "##anga": 2703,
      "high": 2704,
      "##pt": 2705,
      "##po": 2706,
      "buk": 2707,
      "post": 2708,
      "first": 2709,
      "last": 2710,
      "##adong": 2711,
      "##alagang": 2712,
      "office": 2713,
      "##ild": 2714,
      "200": 2715,
      "lar": 2716,
      "##aral": 2717,
      "panan": 2718,
      "##agdag": 2719,
      "peop": 2720,
      "##ibigay": 2721,
      "any": 2722,
      "##ador": 2723,
      "sy": 2724,
      "day": 2725,
      "##ible": 2726,
      "##ise": 2727,
      "lung": 2728,
      "##wan": 2729,
      "pagd": 2730,
      "##uct": 2731,
      "bakit": 2732,
      "##old": 2733,
      "gawa": 2734,
      "##ikal": 2735,
      "##ick": 2736,
      "##out": 2737,
      "kag": 2738,
      "provin": 2739,
      "kailangan": 2740,
      "bus": 2741,
      "soc": 2742,
      "acc": 2743,
      "##undo": 2744,
      "##pa": 2745,
      "ina": 2746,
      "pna": 2747,
      "nin": 2748,
      "##min": 2749,
      "two": 2750,
      "marami": 2751,
      "muk": 2752,
      "local": 2753,
      "##ungan": 2754,
      "##ities": 2755,
      "dating": 2756,
      "team": 2757,
      "lungsod": 2758,
      "people": 2759,
      "pagp": 2760,
      "akin": 2761,
      "kabilang": 2762,
      "des": 2763,
      "bl": 2764,
      "##que": 2765,
      "yun": 2766,
      "##ject": 2767,
      "##ely": 2768,
      "lugar": 2769,
      "public": 2770,
      "ika": 2771,
      "##iwang": 2772,
      "##ctor": 2773,
      "##get": 2774,
      "over": 2775,
      "##iit": 2776,
      "nina": 2777,
      "parang": 2778,
      "##ena": 2779,
      "nal": 2780,
      "intern": 2781,
      "##ass": 2782,
      "dam": 2783,
      "report": 2784,
      "if": 2785,
      "pus": 2786,
      "##ante": 2787,
      "##ms": 2788,
      "eh": 2789,
      "##ye": 2790,
      "neg": 2791,
      "bit": 2792,
      "pagbab": 2793,
      "##leg": 2794,
      "da": 2795,
      "under": 2796,
      "kil": 2797,
      "##isip": 2798,
      "##ayang": 2799,
      "than": 2800,
      "net": 2801,
      "isin": 2802,
      "##its": 2803,
      "serv": 2804,
      "##ember": 2805,
      "sol": 2806,
      "been": 2807,
      "##ahing": 2808,
      "##reat": 2809,
      "##ivers": 2810,
      "mov": 2811,
      "again": 2812,
      "ling": 2813,
      "##igan": 2814,
      "sinas": 2815,
      "##igo": 2816,
      "##unang": 2817,
      "su": 2818,
      "str": 2819,
      "rom": 2820,
      "kak": 2821,
      "bawat": 2822,
      "30": 2823,
      "lalo": 2824,
      "##ady": 2825,
      "##urt": 2826,
      "cas": 2827,
      "##asok": 2828,
      "##urn": 2829,
      "pel": 2830,
      "sarili": 2831,
      "ek": 2832,
      "lalaki": 2833,
      "chief": 2834,
      "lun": 2835,
      "langis": 2836,
      "##agk": 2837,
      "tayo": 2838,
      "pamp": 2839,
      "##ition": 2840,
      "##ilis": 2841,
      "uri": 2842,
      "##anc": 2843,
      "magb": 2844,
      "pagkawala": 2845,
      "##ency": 2846,
      "would": 2847,
      "##ings": 2848,
      "maaari": 2849,
      "##ates": 2850,
      "##ket": 2851,
      "nilang": 2852,
      "program": 2853,
      "naka": 2854,
      "huw": 2855,
      "paraan": 2856,
      "don": 2857,
      "##uhay": 2858,
      "magp": 2859,
      "bab": 2860,
      "kanila": 2861,
      "##ites": 2862,
      "##ugn": 2863,
      "app": 2864,
      "star": 2865,
      "cons": 2866,
      "14": 2867,
      "##own": 2868,
      "arm": 2869,
      "13": 2870,
      "pamilya": 2871,
      "kuw": 2872,
      "iyon": 2873,
      "ilalim": 2874,
      "##pit": 2875,
      "bel": 2876,
      "gamit": 2877,
      "##ikang": 2878,
      "karan": 2879,
      "##utan": 2880,
      "pab": 2881,
      "##alas": 2882,
      "fil": 2883,
      "##ikong": 2884,
      "val": 2885,
      "16": 2886,
      "##ulad": 2887,
      "kasal": 2888,
      "akong": 2889,
      "##awak": 2890,
      "them": 2891,
      "aaral": 2892,
      "##let": 2893,
      "puw": 2894,
      "ts": 2895,
      "him": 2896,
      "conf": 2897,
      "when": 2898,
      "##ulan": 2899,
      "##ric": 2900,
      "pho": 2901,
      "##akita": 2902,
      "set": 2903,
      "pelik": 2904,
      "##iyak": 2905,
      "parasito": 2906,
      "kn": 2907,
      "##alaman": 2908,
      "##alay": 2909,
      "##irap": 2910,
      "##ba": 2911,
      "##uno": 2912,
      "mong": 2913,
      "que": 2914,
      "##ck": 2915,
      "##lat": 2916,
      "##velop": 2917,
      "##uti": 2918,
      "yan": 2919,
      "##ikita": 2920,
      "kayo": 2921,
      "lup": 2922,
      "during": 2923,
      "##atid": 2924,
      "commun": 2925,
      "now": 2926,
      "##usay": 2927,
      "group": 2928,
      "mayor": 2929,
      "develop": 2930,
      "##iel": 2931,
      "tel": 2932,
      "makak": 2933,
      "##inig": 2934,
      "ingles": 2935,
      "about": 2936,
      "php": 2937,
      "##ira": 2938,
      "##ibo": 2939,
      "##san": 2940,
      "##anap": 2941,
      "filipino": 2942,
      "mus": 2943,
      "##we": 2944,
      "##ahin": 2945,
      "sm": 2946,
      "##retary": 2947,
      "kamay": 2948,
      "##hi": 2949,
      "##unta": 2950,
      "##lam": 2951,
      "cal": 2952,
      "##xt": 2953,
      "country": 2954,
      "##ues": 2955,
      "##ited": 2956,
      "tatlong": 2957,
      "##sh": 2958,
      "##ily": 2959,
      "##log": 2960,
      "##ebr": 2961,
      "organ": 2962,
      "rod": 2963,
      "bulate": 2964,
      "##ph": 2965,
      "proble": 2966,
      "ring": 2967,
      "inil": 2968,
      "manag": 2969,
      "malaking": 2970,
      "nah": 2971,
      "tun": 2972,
      "ob": 2973,
      "##esus": 2974,
      "##urang": 2975,
      "tinatawag": 2976,
      "sob": 2977,
      "fol": 2978,
      "pamahala": 2979,
      "##iga": 2980,
      "##ork": 2981,
      "cre": 2982,
      "##olog": 2983,
      "##ath": 2984,
      "##cent": 2985,
      "##aban": 2986,
      "kaysa": 2987,
      "##amd": 2988,
      "kris": 2989,
      "sas": 2990,
      "pati": 2991,
      "mundo": 2992,
      "media": 2993,
      "mer": 2994,
      "suso": 2995,
      "ec": 2996,
      "official": 2997,
      "##ning": 2998,
      "17": 2999,
      "##rol": 3000,
      "real": 3001,
      "vis": 3002,
      "##ied": 3003,
      "mot": 3004,
      "pamb": 3005,
      "project": 3006,
      "##riend": 3007,
      "batas": 3008,
      "##alis": 3009,
      "fam": 3010,
      "##ational": 3011,
      "ibin": 3012,
      "dav": 3013,
      "##ta": 3014,
      "love": 3015,
      "##agang": 3016,
      "added": 3017,
      "trad": 3018,
      "##iba": 3019,
      "play": 3020,
      "gamot": 3021,
      "##uku": 3022,
      "pop": 3023,
      "lit": 3024,
      "##hool": 3025,
      "pagiging": 3026,
      "bet": 3027,
      "mod": 3028,
      "oras": 3029,
      "long": 3030,
      "tub": 3031,
      "social": 3032,
      "lead": 3033,
      "##ole": 3034,
      "##iwanag": 3035,
      "amer": 3036,
      "ever": 3037,
      "vide": 3038,
      "say": 3039,
      "sana": 3040,
      "world": 3041,
      "##cess": 3042,
      "##oloh": 3043,
      "pala": 3044,
      "lin": 3045,
      "##line": 3046,
      "school": 3047,
      "##imula": 3048,
      "fl": 3049,
      "air": 3050,
      "##cause": 3051,
      "because": 3052,
      "pagitan": 3053,
      "##ater": 3054,
      "sakit": 3055,
      "news": 3056,
      "##ake": 3057,
      "bro": 3058,
      "##amat": 3059,
      "##amin": 3060,
      "##awi": 3061,
      "emp": 3062,
      "nort": 3063,
      "tit": 3064,
      "##anta": 3065,
      "##do": 3066,
      "##ator": 3067,
      "nangy": 3068,
      "lag": 3069,
      "umano": 3070,
      "lu": 3071,
      "##ibong": 3072,
      "bik": 3073,
      "##awalan": 3074,
      "##ente": 3075,
      "pagtat": 3076,
      "##iyan": 3077,
      "##alaking": 3078,
      "##ukoy": 3079,
      "how": 3080,
      "##ft": 3081,
      "abs": 3082,
      "cap": 3083,
      "##pos": 3084,
      "mukha": 3085,
      "presyo": 3086,
      "int": 3087,
      "ngayong": 3088,
      "25": 3089,
      "war": 3090,
      "opis": 3091,
      "pakik": 3092,
      "##abot": 3093,
      "good": 3094,
      "akt": 3095,
      "##usyon": 3096,
      "against": 3097,
      "##igt": 3098,
      "pangalan": 3099,
      "##land": 3100,
      "##agat": 3101,
      "batang": 3102,
      "pet": 3103,
      "kun": 3104,
      "##ission": 3105,
      "invest": 3106,
      "ok": 3107,
      "##ont": 3108,
      "mor": 3109,
      "##uel": 3110,
      "##agal": 3111,
      "had": 3112,
      "ginawa": 3113,
      "##ces": 3114,
      "##anao": 3115,
      "pulis": 3116,
      "while": 3117,
      "##araan": 3118,
      "secretary": 3119,
      "##alat": 3120,
      "parasites": 3121,
      "##umb": 3122,
      "jose": 3123,
      "##uri": 3124,
      "katulad": 3125,
      "epek": 3126,
      "ginagamit": 3127,
      "pn": 3128,
      "ibig": 3129,
      "##anan": 3130,
      "simb": 3131,
      "##hang": 3132,
      "mart": 3133,
      "some": 3134,
      "like": 3135,
      "gaya": 3136,
      "pangun": 3137,
      "##mas": 3138,
      "##pir": 3139,
      "att": 3140,
      "21": 3141,
      "mata": 3142,
      "gag": 3143,
      "gawin": 3144,
      "percent": 3145,
      "distr": 3146,
      "##form": 3147,
      "maliit": 3148,
      "##iniwala": 3149,
      "noon": 3150,
      "mayroon": 3151,
      "##mer": 3152,
      "thro": 3153,
      "ug": 3154,
      "asawa": 3155,
      "ama": 3156,
      "##ason": 3157,
      "samant": 3158,
      "agad": 3159,
      "fung": 3160,
      "##ibigan": 3161,
      "22": 3162,
      "admin": 3163,
      "huwag": 3164,
      "##umang": 3165,
      "what": 3166,
      "mayroong": 3167,
      "##uction": 3168,
      "sag": 3169,
      "nagh": 3170,
      "##ered": 3171,
      "##ural": 3172,
      "video": 3173,
      "##ustr": 3174,
      "buwan": 3175,
      "##ife": 3176,
      "dalawa": 3177,
      "##za": 3178,
      "angel": 3179,
      "siy": 3180,
      "point": 3181,
      "##yar": 3182,
      "only": 3183,
      "end": 3184,
      "gabi": 3185,
      "##uwal": 3186,
      "##ulugan": 3187,
      "ear": 3188,
      "linggo": 3189,
      "incl": 3190,
      "##dia": 3191,
      "tv": 3192,
      "rodr": 3193,
      "years": 3194,
      "ale": 3195,
      "hair": 3196,
      "test": 3197,
      "quar": 3198,
      "univers": 3199,
      "namang": 3200,
      "trabaho": 3201,
      "region": 3202,
      "mr": 3203,
      "##lim": 3204,
      "pad": 3205,
      "2019": 3206,
      "nagm": 3207,
      "##ros": 3208,
      "center": 3209,
      "jan": 3210,
      "er": 3211,
      "##bay": 3212,
      "press": 3213,
      "kaso": 3214,
      "ii": 3215,
      "vic": 3216,
      "development": 3217,
      "##asak": 3218,
      "##iness": 3219,
      "av": 3220,
      "sist": 3221,
      "##apon": 3222,
      "mind": 3223,
      "##pital": 3224,
      "##agdagan": 3225,
      "napak": 3226,
      "assist": 3227,
      "pamahalaan": 3228,
      "##ious": 3229,
      "##irus": 3230,
      "administr": 3231,
      "kasaluku": 3232,
      "million": 3233,
      "director": 3234,
      "metro": 3235,
      "##alabas": 3236,
      "nasabing": 3237,
      "ig": 3238,
      "magiging": 3239,
      "##ices": 3240,
      "sabihin": 3241,
      "##ots": 3242,
      "sel": 3243,
      "##abay": 3244,
      "##ida": 3245,
      "##iran": 3246,
      "##ives": 3247,
      "##ling": 3248,
      "toto": 3249,
      "##emp": 3250,
      "char": 3251,
      "south": 3252,
      "oc": 3253,
      "##ision": 3254,
      "pangunahing": 3255,
      "balat": 3256,
      "ah": 3257,
      "photo": 3258,
      "##araang": 3259,
      "three": 3260,
      "aff": 3261,
      "need": 3262,
      "house": 3263,
      "##ner": 3264,
      "##ful": 3265,
      "stat": 3266,
      "best": 3267,
      "magt": 3268,
      "court": 3269,
      "very": 3270,
      "##ted": 3271,
      "eff": 3272,
      "vi": 3273,
      "##loy": 3274,
      "general": 3275,
      "##ime": 3276,
      "##eta": 3277,
      "far": 3278,
      "hapon": 3279,
      "conc": 3280,
      "support": 3281,
      "karam": 3282,
      "dar": 3283,
      "const": 3284,
      "halos": 3285,
      "##ility": 3286,
      "kaugn": 3287,
      "##abag": 3288,
      "##ier": 3289,
      "##ugo": 3290,
      "##upo": 3291,
      "##usan": 3292,
      "##embre": 3293,
      "aqu": 3294,
      "##cos": 3295,
      "tan": 3296,
      "##hn": 3297,
      "back": 3298,
      "pahayag": 3299,
      "##ahe": 3300,
      "vill": 3301,
      "##by": 3302,
      "##ey": 3303,
      "kad": 3304,
      "ini": 3305,
      "##ilit": 3306,
      "##ema": 3307,
      "har": 3308,
      "num": 3309,
      "##utub": 3310,
      "biktim": 3311,
      "halimb": 3312,
      "ca": 3313,
      "dahilan": 3314,
      "ann": 3315,
      "higit": 3316,
      "##apang": 3317,
      "##ards": 3318,
      "##ous": 3319,
      "help": 3320,
      "alis": 3321,
      "##isyo": 3322,
      "jul": 3323,
      "cond": 3324,
      "pangulong": 3325,
      "cb": 3326,
      "##aks": 3327,
      "tunay": 3328,
      "apat": 3329,
      "nais": 3330,
      "order": 3331,
      "##tong": 3332,
      "##ease": 3333,
      "ra": 3334,
      "##utin": 3335,
      "aniya": 3336,
      "##ution": 3337,
      "adv": 3338,
      "##ute": 3339,
      "2018": 3340,
      "kilala": 3341,
      "rob": 3342,
      "##ics": 3343,
      "well": 3344,
      "##arian": 3345,
      "win": 3346,
      "##nan": 3347,
      "iss": 3348,
      "naw": 3349,
      "opisyal": 3350,
      "##hip": 3351,
      "exp": 3352,
      "23": 3353,
      "24": 3354,
      "det": 3355,
      "##gy": 3356,
      "##ulot": 3357,
      "resp": 3358,
      "personal": 3359,
      "##ral": 3360,
      "prote": 3361,
      "##oto": 3362,
      "includ": 3363,
      "halimbawa": 3364,
      "produk": 3365,
      "leg": 3366,
      "boy": 3367,
      "gob": 3368,
      "international": 3369,
      "##ka": 3370,
      "business": 3371,
      "chr": 3372,
      "##igil": 3373,
      "commit": 3374,
      "sino": 3375,
      "reh": 3376,
      "aming": 3377,
      "month": 3378,
      "ding": 3379,
      "kl": 3380,
      "##panya": 3381,
      "pelikula": 3382,
      "pangulo": 3383,
      "##ific": 3384,
      "bang": 3385,
      "##ayari": 3386,
      "pagkain": 3387,
      "##ants": 3388,
      "sapagk": 3389,
      "pand": 3390,
      "jun": 3391,
      "quezon": 3392,
      "##va": 3393,
      "isip": 3394,
      "sk": 3395,
      "##usap": 3396,
      "pilipino": 3397,
      "##20": 3398,
      "def": 3399,
      "##puan": 3400,
      "nagd": 3401,
      "mayn": 3402,
      "sw": 3403,
      "pagbaba": 3404,
      "bay": 3405,
      "sund": 3406,
      "talagang": 3407,
      "ikaw": 3408,
      "doon": 3409,
      "##ior": 3410,
      "patuloy": 3411,
      "##along": 3412,
      "miy": 3413,
      "cam": 3414,
      "##uran": 3415,
      "pnp": 3416,
      "##ting": 3417,
      "rodrigo": 3418,
      "right": 3419,
      "##lang": 3420,
      "bud": 3421,
      "##alam": 3422,
      "result": 3423,
      "##sik": 3424,
      "##erno": 3425,
      "##asyong": 3426,
      "anti": 3427,
      "tab": 3428,
      "these": 3429,
      "dem": 3430,
      "##ilo": 3431,
      "get": 3432,
      "bre": 3433,
      "fin": 3434,
      "##esto": 3435,
      "suspek": 3436,
      "##atan": 3437,
      "ros": 3438,
      "##ensiya": 3439,
      "eks": 3440,
      "milit": 3441,
      "top": 3442,
      "pant": 3443,
      "muling": 3444,
      "##ments": 3445,
      "##ulog": 3446,
      "mabilis": 3447,
      "##ansin": 3448,
      "##rang": 3449,
      "##ys": 3450,
      "through": 3451,
      "##iver": 3452,
      "##count": 3453,
      "euro": 3454,
      "baka": 3455,
      "ret": 3456,
      "tang": 3457,
      "kapatid": 3458,
      "hand": 3459,
      "##ti": 3460,
      "##ative": 3461,
      "ginagawa": 3462,
      "krist": 3463,
      "hil": 3464,
      "##ungo": 3465,
      "panl": 3466,
      "happ": 3467,
      "##ink": 3468,
      "##legal": 3469,
      "red": 3470,
      "##ote": 3471,
      "bil": 3472,
      "##tern": 3473,
      "##tal": 3474,
      "week": 3475,
      "being": 3476,
      "huling": 3477,
      "dom": 3478,
      "##enn": 3479,
      "tubig": 3480,
      "una": 3481,
      "gi": 3482,
      "maynila": 3483,
      "contin": 3484,
      "##ared": 3485,
      "sto": 3486,
      "pw": 3487,
      "your": 3488,
      "##ukan": 3489,
      "##cr": 3490,
      "lunas": 3491,
      "anumang": 3492,
      "apr": 3493,
      "davao": 3494,
      "amin": 3495,
      "gma": 3496,
      "199": 3497,
      "cel": 3498,
      "##fore": 3499,
      "##hing": 3500,
      "kaibigan": 3501,
      "##wal": 3502,
      "auth": 3503,
      "nakita": 3504,
      "##atang": 3505,
      "biktima": 3506,
      "##ono": 3507,
      "camp": 3508,
      "bukod": 3509,
      "know": 3510,
      "##itor": 3511,
      "##iting": 3512,
      "ha": 3513,
      "tuw": 3514,
      "nangang": 3515,
      "cbn": 3516,
      "here": 3517,
      "##ple": 3518,
      "pass": 3519,
      "dagdag": 3520,
      "care": 3521,
      "still": 3522,
      "start": 3523,
      "rito": 3524,
      "##rop": 3525,
      "john": 3526,
      "ut": 3527,
      "##ko": 3528,
      "open": 3529,
      "paggamit": 3530,
      "tar": 3531,
      "sit": 3532,
      "bib": 3533,
      "follow": 3534,
      "nad": 3535,
      "kul": 3536,
      "##uch": 3537,
      "##ahal": 3538,
      "##ced": 3539,
      "muna": 3540,
      "list": 3541,
      "##ayos": 3542,
      "karaniwang": 3543,
      "subalit": 3544,
      "##ked": 3545,
      "##wer": 3546,
      "##uang": 3547,
      "##ahah": 3548,
      "ninyo": 3549,
      "china": 3550,
      "##lad": 3551,
      "direk": 3552,
      "gumawa": 3553,
      "problema": 3554,
      "##atak": 3555,
      "salita": 3556,
      "kore": 3557,
      "##ecut": 3558,
      "bir": 3559,
      "tulong": 3560,
      "##uz": 3561,
      "##ido": 3562,
      "sign": 3563,
      "put": 3564,
      "wika": 3565,
      "ir": 3566,
      "##asama": 3567,
      "land": 3568,
      "##upad": 3569,
      "host": 3570,
      "##hin": 3571,
      "sik": 3572,
      "##ctions": 3573,
      "##way": 3574,
      "wed": 3575,
      "author": 3576,
      "##ved": 3577,
      "karamihan": 3578,
      "kundi": 3579,
      "##ica": 3580,
      "magkaroon": 3581,
      "commission": 3582,
      "cast": 3583,
      "##stem": 3584,
      "##au": 3585,
      "##eg": 3586,
      "kang": 3587,
      "##he": 3588,
      "final": 3589,
      "##ilangang": 3590,
      "hay": 3591,
      "sil": 3592,
      "sand": 3593,
      "posible": 3594,
      "##ubuo": 3595,
      "##udy": 3596,
      "kontr": 3597,
      "pay": 3598,
      "tip": 3599,
      "##ized": 3600,
      "ur": 3601,
      "##work": 3602,
      "ilo": 3603,
      "198": 3604,
      "most": 3605,
      "##ikha": 3606,
      "##red": 3607,
      "inyong": 3608,
      "##ures": 3609,
      "pil": 3610,
      "before": 3611,
      "nakik": 3612,
      "even": 3613,
      "main": 3614,
      "ga": 3615,
      "eng": 3616,
      "puso": 3617,
      "##arawan": 3618,
      "laro": 3619,
      "iyo": 3620,
      "regional": 3621,
      "##wh": 3622,
      "biy": 3623,
      "call": 3624,
      "##ela": 3625,
      "aquino": 3626,
      "pagm": 3627,
      "##illa": 3628,
      "game": 3629,
      "dak": 3630,
      "kons": 3631,
      "super": 3632,
      "system": 3633,
      "##abaw": 3634,
      "wikang": 3635,
      "##aganap": 3636,
      "prom": 3637,
      "makapag": 3638,
      "account": 3639,
      "imb": 3640,
      "bot": 3641,
      "dig": 3642,
      "##omet": 3643,
      "goby": 3644,
      "##pes": 3645,
      "##ley": 3646,
      "want": 3647,
      "pros": 3648,
      "should": 3649,
      "##adala": 3650,
      "malapit": 3651,
      "import": 3652,
      "##ness": 3653,
      "gagawin": 3654,
      "##gawa": 3655,
      "##ather": 3656,
      "##med": 3657,
      "##nel": 3658,
      "##lob": 3659,
      "tumut": 3660,
      "four": 3661,
      "head": 3662,
      "compl": 3663,
      "ting": 3664,
      "##anood": 3665,
      "cle": 3666,
      "##ales": 3667,
      "ceb": 3668,
      "2017": 3669,
      "##nes": 3670,
      "vice": 3671,
      "hang": 3672,
      "resident": 3673,
      "##iwalay": 3674,
      "old": 3675,
      "##ataas": 3676,
      "gawain": 3677,
      "pangino": 3678,
      "simula": 3679,
      "##anggit": 3680,
      "##ider": 3681,
      "##amina": 3682,
      "train": 3683,
      "cur": 3684,
      "##igd": 3685,
      "nov": 3686,
      "##aki": 3687,
      "second": 3688,
      "bill": 3689,
      "kuwento": 3690,
      "##unin": 3691,
      "##ty": 3692,
      "##iyo": 3693,
      "maria": 3694,
      "##ilin": 3695,
      "##ede": 3696,
      "pagkakata": 3697,
      "mond": 3698,
      "salitang": 3699,
      "movie": 3700,
      "nagkaroon": 3701,
      "tour": 3702,
      "pinaka": 3703,
      "lay": 3704,
      "makat": 3705,
      "gir": 3706,
      "every": 3707,
      "those": 3708,
      "##alita": 3709,
      "kahapon": 3710,
      "edad": 3711,
      "##ee": 3712,
      "##antine": 3713,
      "nakapag": 3714,
      "since": 3715,
      "##ola": 3716,
      "##uy": 3717,
      "child": 3718,
      "juan": 3719,
      "##iri": 3720,
      "polit": 3721,
      "##oro": 3722,
      "gobyerno": 3723,
      "hen": 3724,
      "nakal": 3725,
      "bitamina": 3726,
      "pis": 3727,
      "tapos": 3728,
      "online": 3729,
      "ilan": 3730,
      "mindanao": 3731,
      "pac": 3732,
      "##son": 3733,
      "mataas": 3734,
      "##aff": 3735,
      "##ser": 3736,
      "muli": 3737,
      "hesus": 3738,
      "##ete": 3739,
      "men": 3740,
      "agency": 3741,
      "ram": 3742,
      "##api": 3743,
      "rey": 3744,
      "larawan": 3745,
      "compan": 3746,
      "down": 3747,
      "republ": 3748,
      "pakikipag": 3749,
      "miss": 3750,
      "magandang": 3751,
      "##akan": 3752,
      "ayaw": 3753,
      "##fa": 3754,
      "dok": 3755,
      "chair": 3756,
      "sanhi": 3757,
      "os": 3758,
      "secur": 3759,
      "##ines": 3760,
      "matatag": 3761,
      "area": 3762,
      "##elo": 3763,
      "bansang": 3764,
      "plan": 3765,
      "##mit": 3766,
      "nya": 3767,
      "anim": 3768,
      "cases": 3769,
      "into": 3770,
      "##alawigan": 3771,
      "##ormal": 3772,
      "lat": 3773,
      "##ehong": 3774,
      "make": 3775,
      "26": 3776,
      "git": 3777,
      "##eho": 3778,
      "community": 3779,
      "girl": 3780,
      "mom": 3781,
      "home": 3782,
      "number": 3783,
      "sun": 3784,
      "ulo": 3785,
      "##icip": 3786,
      "provincial": 3787,
      "##ias": 3788,
      "##ahanap": 3789,
      "##atili": 3790,
      "university": 3791,
      "sobrang": 3792,
      "cebu": 3793,
      "##uwa": 3794,
      "sat": 3795,
      "lip": 3796,
      "mamam": 3797,
      "##ports": 3798,
      "lupa": 3799,
      "family": 3800,
      "##lement": 3801,
      "gar": 3802,
      "bene": 3803,
      "record": 3804,
      "pinoy": 3805,
      "minsan": 3806,
      "ipinag": 3807,
      "##uso": 3808,
      "rest": 3809,
      "life": 3810,
      "special": 3811,
      "memb": 3812,
      "north": 3813,
      "bea": 3814,
      "fungus": 3815,
      "town": 3816,
      "where": 3817,
      "cream": 3818,
      "27": 3819,
      "nangyari": 3820,
      "mahal": 3821,
      "aklat": 3822,
      "maj": 3823,
      "jr": 3824,
      "reb": 3825,
      "coron": 3826,
      "province": 3827,
      "uma": 3828,
      "##ental": 3829,
      "hos": 3830,
      "fore": 3831,
      "##iwa": 3832,
      "tech": 3833,
      "dugo": 3834,
      "let": 3835,
      "saf": 3836,
      "##ival": 3837,
      "cong": 3838,
      "nakaraang": 3839,
      "ben": 3840,
      "monday": 3841,
      "##uturing": 3842,
      "look": 3843,
      "ani": 3844,
      "##ising": 3845,
      "magkak": 3846,
      "interv": 3847,
      "##ones": 3848,
      "pinakamah": 3849,
      "##eo": 3850,
      "##olohiya": 3851,
      "katutub": 3852,
      "market": 3853,
      "##yu": 3854,
      "##uss": 3855,
      "##udi": 3856,
      "nating": 3857,
      "p1": 3858,
      "div": 3859,
      "contr": 3860,
      "illegal": 3861,
      "pinap": 3862,
      "##igdig": 3863,
      "28": 3864,
      "##ook": 3865,
      "econom": 3866,
      "pagkaka": 3867,
      "##eas": 3868,
      "##isang": 3869,
      "anong": 3870,
      "network": 3871,
      "requ": 3872,
      "init": 3873,
      "##ayong": 3874,
      "aug": 3875,
      "ep": 3876,
      "sent": 3877,
      "stre": 3878,
      "sumus": 3879,
      "colle": 3880,
      "members": 3881,
      "##ij": 3882,
      "##ami": 3883,
      "##eso": 3884,
      "##iday": 3885,
      "##oney": 3886,
      "##ez": 3887,
      "##atch": 3888,
      "management": 3889,
      "##uman": 3890,
      "wr": 3891,
      "sex": 3892,
      "##ipas": 3893,
      "respons": 3894,
      "prev": 3895,
      "##ets": 3896,
      "dan": 3897,
      "workers": 3898,
      "##bi": 3899,
      "lalawigan": 3900,
      "50": 3901,
      "bor": 3902,
      "parehong": 3903,
      "##isk": 3904,
      "magd": 3905,
      "statement": 3906,
      "pagsus": 3907,
      "build": 3908,
      "enter": 3909,
      "inform": 3910,
      "dumating": 3911,
      "kw": 3912,
      "##ash": 3913,
      "##ona": 3914,
      "suk": 3915,
      "port": 3916,
      "remed": 3917,
      "billion": 3918,
      "gre": 3919,
      "##led": 3920,
      "##asin": 3921,
      "hospital": 3922,
      "grupo": 3923,
      "inih": 3924,
      "hom": 3925,
      "own": 3926,
      "ref": 3927,
      "sch": 3928,
      "##ists": 3929,
      "mawalan": 3930,
      "##ram": 3931,
      "mean": 3932,
      "sapagkat": 3933,
      "sinasabi": 3934,
      "term": 3935,
      "fans": 3936,
      "##uary": 3937,
      "##uns": 3938,
      "##igtas": 3939,
      "hot": 3940,
      "##ekto": 3941,
      "corp": 3942,
      "##ulasyon": 3943,
      "could": 3944,
      "alas": 3945,
      "siguro": 3946,
      "##embro": 3947,
      "eb": 3948,
      "totoo": 3949,
      "##yembre": 3950,
      "##oss": 3951,
      "##ren": 3952,
      "sept": 3953,
      "##tion": 3954,
      "##ts": 3955,
      "##ardia": 3956,
      "##elf": 3957,
      "taga": 3958,
      "##uhin": 3959,
      "ari": 3960,
      "seks": 3961,
      "patay": 3962,
      "maganda": 3963,
      "pagsas": 3964,
      "##igyan": 3965,
      "disease": 3966,
      "jam": 3967,
      "papa": 3968,
      "##ready": 3969,
      "way": 3970,
      "already": 3971,
      "matat": 3972,
      "##anggol": 3973,
      "face": 3974,
      "##ua": 3975,
      "samantala": 3976,
      "sariling": 3977,
      "found": 3978,
      "tax": 3979,
      "tues": 3980,
      "##irang": 3981,
      "ganitong": 3982,
      "##round": 3983,
      "ekonom": 3984,
      "friend": 3985,
      "service": 3986,
      "food": 3987,
      "##ode": 3988,
      "security": 3989,
      "##ulungan": 3990,
      "quarantine": 3991,
      "exc": 3992,
      "##ball": 3993,
      "tuesday": 3994,
      "paghah": 3995,
      "##ming": 3996,
      "##atas": 3997,
      "champ": 3998,
      "made": 3999,
      "##arra": 4000,
      "pagpapalaki": 4001,
      "state": 4002,
      "nu": 4003,
      "transport": 4004,
      "timog": 4005,
      "##ev": 4006,
      "estad": 4007,
      "kaugnay": 4008,
      "aktres": 4009,
      "miyembro": 4010,
      "vol": 4011,
      "##ako": 4012,
      "force": 4013,
      "##yarihan": 4014,
      "techn": 4015,
      "fund": 4016,
      "napap": 4017,
      "party": 4018,
      "kanl": 4019,
      "##osto": 4020,
      "coc": 4021,
      "uk": 4022,
      "##alagay": 4023,
      "spot": 4024,
      "nakap": 4025,
      "then": 4026,
      "##ebook": 4027,
      "operations": 4028,
      "##ody": 4029,
      "nangangah": 4030,
      "execut": 4031,
      "magl": 4032,
      "kapwa": 4033,
      "##ambo": 4034,
      "kapang": 4035,
      "sul": 4036,
      "kita": 4037,
      "did": 4038,
      "fire": 4039,
      "kabata": 4040,
      "daan": 4041,
      "serb": 4042,
      "wom": 4043,
      "sib": 4044,
      "##uty": 4045,
      "##eno": 4046,
      "free": 4047,
      "film": 4048,
      "investig": 4049,
      "mic": 4050,
      "next": 4051,
      "road": 4052,
      "##ense": 4053,
      "implement": 4054,
      "##ified": 4055,
      "activ": 4056,
      "gil": 4057,
      "##ondo": 4058,
      "kasalukuyang": 4059,
      "maka": 4060,
      "##akit": 4061,
      "wednes": 4062,
      "pagkakaroon": 4063,
      "##ksiyon": 4064,
      "negos": 4065,
      "##ags": 4066,
      "dro": 4067,
      "karapat": 4068,
      "mis": 4069,
      "##ardo": 4070,
      "tagapag": 4071,
      "2016": 4072,
      "wednesday": 4073,
      "jud": 4074,
      "##rato": 4075,
      "##aso": 4076,
      "meet": 4077,
      "##den": 4078,
      "##ange": 4079,
      "total": 4080,
      "##avirus": 4081,
      "##aharap": 4082,
      "##ught": 4083,
      "giardia": 4084,
      "##aralan": 4085,
      "suspect": 4086,
      "among": 4087,
      "alisin": 4088,
      "29": 4089,
      "panginoon": 4090,
      "coronavirus": 4091,
      "facebook": 4092,
      "magulang": 4093,
      "##ps": 4094,
      "##tee": 4095,
      "##king": 4096,
      "pera": 4097,
      "pambans": 4098,
      "take": 4099,
      "interview": 4100,
      "100": 4101,
      "kababa": 4102,
      "##vers": 4103,
      "base": 4104,
      "medical": 4105,
      "luc": 4106,
      "##ology": 4107,
      "read": 4108,
      "##umpay": 4109,
      "based": 4110,
      "rece": 4111,
      "feel": 4112,
      "officials": 4113,
      "kim": 4114,
      "kinab": 4115,
      "simbahan": 4116,
      "such": 4117,
      "nakab": 4118,
      "senador": 4119,
      "see": 4120,
      "bure": 4121,
      "##aysayan": 4122,
      "##hel": 4123,
      "bur": 4124,
      "pah": 4125,
      "ulit": 4126,
      "umaga": 4127,
      "tas": 4128,
      "##agay": 4129,
      "##ety": 4130,
      "educ": 4131,
      "japan": 4132,
      "points": 4133,
      "katoto": 4134,
      "aktor": 4135,
      "##amdaman": 4136,
      "galing": 4137,
      "31": 4138,
      "celebr": 4139,
      "nagsas": 4140,
      "stand": 4141,
      "##friend": 4142,
      "marcos": 4143,
      "##ization": 4144,
      "tanong": 4145,
      "presidential": 4146,
      "pagkakataon": 4147,
      "##se": 4148,
      "katutubong": 4149,
      "##ingg": 4150,
      "##alian": 4151,
      "committee": 4152,
      "ext": 4153,
      "##ror": 4154,
      "partik": 4155,
      "pagka": 4156,
      "##andaan": 4157,
      "##ale": 4158,
      "##iation": 4159,
      "bi": 4160,
      "##atawan": 4161,
      "##lan": 4162,
      "matagal": 4163,
      "##oso": 4164,
      "posit": 4165,
      "nai": 4166,
      "##siyon": 4167,
      "40": 4168,
      "##atuloy": 4169,
      "sangk": 4170,
      "gamitin": 4171,
      "water": 4172,
      "##ingi": 4173,
      "treat": 4174,
      "##enta": 4175,
      "tama": 4176,
      "showb": 4177,
      "##indi": 4178,
      "madalas": 4179,
      "halaga": 4180,
      "##ony": 4181,
      "lok": 4182,
      "kailangang": 4183,
      "malaki": 4184,
      "bangk": 4185,
      "##no": 4186,
      "##alog": 4187,
      "tap": 4188,
      "justice": 4189,
      "##orc": 4190,
      "bis": 4191,
      "sports": 4192,
      "estado": 4193,
      "bibl": 4194,
      "##idos": 4195,
      "case": 4196,
      "##iral": 4197,
      "hud": 4198,
      "puntos": 4199,
      "##ade": 4200,
      "##ually": 4201,
      "##eril": 4202,
      "santos": 4203,
      "je": 4204,
      "mark": 4205,
      "bureau": 4206,
      "makita": 4207,
      "##aryo": 4208,
      "actress": 4209,
      "due": 4210,
      "class": 4211,
      "##ways": 4212,
      "produkto": 4213,
      "bes": 4214,
      "madaling": 4215,
      "##ora": 4216,
      "thurs": 4217,
      "event": 4218,
      "##alanan": 4219,
      "197": 4220,
      "heart": 4221,
      "##uwi": 4222,
      "##orta": 4223,
      "und": 4224,
      "services": 4225,
      "tuloy": 4226,
      "thursday": 4227,
      "cris": 4228,
      "den": 4229,
      "exper": 4230,
      "##esa": 4231,
      "##mp": 4232,
      "christ": 4233,
      "sug": 4234,
      "spok": 4235,
      "##uting": 4236,
      "##wang": 4237,
      "epekto": 4238,
      "indi": 4239,
      "##ukl": 4240,
      "unidos": 4241,
      "season": 4242,
      "expect": 4243,
      "board": 4244,
      "##ihang": 4245,
      "estados": 4246,
      "##bs": 4247,
      "##angailangan": 4248,
      "##alaro": 4249,
      "matatagpuan": 4250,
      "blo": 4251,
      "run": 4252,
      "katotohan": 4253,
      "natural": 4254,
      "##ently": 4255,
      "pri": 4256,
      "##ham": 4257,
      "ikalawang": 4258,
      "batay": 4259,
      "budget": 4260,
      "power": 4261,
      "##ention": 4262,
      "gas": 4263,
      "assoc": 4264,
      "district": 4265,
      "##ged": 4266,
      "accord": 4267,
      "showbiz": 4268,
      "namatay": 4269,
      "sagot": 4270,
      "disc": 4271,
      "##bok": 4272,
      "##yayari": 4273,
      "##anay": 4274,
      "arres": 4275,
      "mun": 4276,
      "friday": 4277,
      "rad": 4278,
      "perform": 4279,
      "imporm": 4280,
      "pamum": 4281,
      "limang": 4282,
      "panahong": 4283,
      "##amdam": 4284,
      "cla": 4285,
      "pangang": 4286,
      "eas": 4287,
      "pers": 4288,
      "franc": 4289,
      "chin": 4290,
      "peace": 4291,
      "riz": 4292,
      "##tain": 4293,
      "actor": 4294,
      "##untis": 4295,
      "mahusay": 4296,
      "##ark": 4297,
      "army": 4298,
      "##iang": 4299,
      "priv": 4300,
      "malin": 4301,
      "tablet": 4302,
      "product": 4303,
      "areas": 4304,
      "meron": 4305,
      "susunod": 4306,
      "##alig": 4307,
      "kabu": 4308,
      "2020": 4309,
      "mm": 4310,
      "non": 4311,
      "past": 4312,
      "sapat": 4313,
      "##ny": 4314,
      "inaas": 4315,
      "kasaysayan": 4316,
      "former": 4317,
      "##iyong": 4318,
      "##rael": 4319,
      "nagbibigay": 4320,
      "droga": 4321,
      "##lish": 4322,
      "relih": 4323,
      "##amatay": 4324,
      "nagsis": 4325,
      "naming": 4326,
      "iii": 4327,
      "##yc": 4328,
      "operation": 4329,
      "gayun": 4330,
      "katang": 4331,
      "labor": 4332,
      "##arang": 4333,
      "##empre": 4334,
      "kulay": 4335,
      "##ium": 4336,
      "award": 4337,
      "same": 4338,
      "foreign": 4339,
      "israel": 4340,
      "mig": 4341,
      "series": 4342,
      "kont": 4343,
      "information": 4344,
      "allow": 4345,
      "giv": 4346,
      "ty": 4347,
      "really": 4348,
      "custo": 4349,
      "ped": 4350,
      "##alin": 4351,
      "ful": 4352,
      "fre": 4353,
      "##als": 4354,
      "daliri": 4355,
      "labas": 4356,
      "tur": 4357,
      "##cil": 4358,
      "tiyak": 4359,
      "mac": 4360,
      "executive": 4361,
      "repres": 4362,
      "doh": 4363,
      "##els": 4364,
      "rich": 4365,
      "##other": 4366,
      "##agot": 4367,
      "kailan": 4368,
      "kababaihan": 4369,
      "ener": 4370,
      "ulat": 4371,
      "bast": 4372,
      "james": 4373,
      "kina": 4374,
      "pig": 4375,
      "march": 4376,
      "##ron": 4377,
      "programa": 4378,
      "##ici": 4379,
      "rizal": 4380,
      "five": 4381,
      "##ffer": 4382,
      "pangkat": 4383,
      "gl": 4384,
      "##ued": 4385,
      "glob": 4386,
      "paglago": 4387,
      "spokes": 4388,
      "june": 4389,
      "tila": 4390,
      "##ahi": 4391,
      "##agad": 4392,
      "##ience": 4393,
      "nagtat": 4394,
      "oil": 4395,
      "cruz": 4396,
      "pagbabago": 4397,
      "tiyan": 4398,
      "conduct": 4399,
      "isyu": 4400,
      "ide": 4401,
      "pagdating": 4402,
      "abr": 4403,
      "##az": 4404,
      "young": 4405,
      "harap": 4406,
      "##par": 4407,
      "naturang": 4408,
      "##ury": 4409,
      "lumabas": 4410,
      "bumili": 4411,
      "##com": 4412,
      "tro": 4413,
      "sasak": 4414,
      "##eration": 4415,
      "amb": 4416,
      "drugs": 4417,
      "##orn": 4418,
      "race": 4419,
      "ms": 4420,
      "lub": 4421,
      "##abu": 4422,
      "##edeng": 4423,
      "##ix": 4424,
      "council": 4425,
      "umi": 4426,
      "officer": 4427,
      "##ending": 4428,
      "##din": 4429,
      "nagkak": 4430,
      "partikular": 4431,
      "games": 4432,
      "##anang": 4433,
      "think": 4434,
      "##pr": 4435,
      "pinakamahusay": 4436,
      "magpap": 4437,
      "##ugang": 4438,
      "inyo": 4439,
      "##asang": 4440,
      "relasyon": 4441,
      "gaano": 4442,
      "##ize": 4443,
      "naniniwala": 4444,
      "represent": 4445,
      "kast": 4446,
      "malakas": 4447,
      "happy": 4448,
      "##anganak": 4449,
      "##yn": 4450,
      "kill": 4451,
      "anyos": 4452,
      "according": 4453,
      "pagmam": 4454,
      "sl": 4455,
      "senator": 4456,
      "gamutin": 4457,
      "poss": 4458,
      "##ayas": 4459,
      "##erm": 4460,
      "bac": 4461,
      "##abayan": 4462,
      "austr": 4463,
      "kaming": 4464,
      "##uhang": 4465,
      "kabataan": 4466,
      "mapup": 4467,
      "##person": 4468,
      "night": 4469,
      "##alala": 4470,
      "process": 4471,
      "ginag": 4472,
      "##erg": 4473,
      "epekt": 4474,
      "nav": 4475,
      "must": 4476,
      "##ird": 4477,
      "tawag": 4478,
      "tumbok": 4479,
      "ugn": 4480,
      "human": 4481,
      "united": 4482,
      "prof": 4483,
      "luzon": 4484,
      "kapangyarihan": 4485,
      "mahigit": 4486,
      "tuwing": 4487,
      "las": 4488,
      "##alya": 4489,
      "sunod": 4490,
      "jesus": 4491,
      "paul": 4492,
      "kinaka": 4493,
      "usap": 4494,
      "pagbub": 4495,
      "mem": 4496,
      "dagat": 4497,
      "##unayan": 4498,
      "##iyano": 4499,
      "incre": 4500,
      "pur": 4501,
      "magh": 4502,
      "lot": 4503,
      "kaw": 4504,
      "manan": 4505,
      "dati": 4506,
      "masaya": 4507,
      "nagsimula": 4508,
      "fight": 4509,
      "chinese": 4510,
      "sem": 4511,
      "kol": 4512,
      "jer": 4513,
      "kalak": 4514,
      "ke": 4515,
      "##ismong": 4516,
      "viol": 4517,
      "##ella": 4518,
      "appro": 4519,
      "benef": 4520,
      "##inga": 4521,
      "senate": 4522,
      "##akt": 4523,
      "wit": 4524,
      "pinang": 4525,
      "##bong": 4526,
      "tinut": 4527,
      "rek": 4528,
      "##ield": 4529,
      "##ksyon": 4530,
      "ung": 4531,
      "##uin": 4532,
      "tut": 4533,
      "dios": 4534,
      "##ended": 4535,
      "##arating": 4536,
      "##tle": 4537,
      "##ahagi": 4538,
      "around": 4539,
      "##jo": 4540,
      "##irapan": 4541,
      "npa": 4542,
      "##ven": 4543,
      "patok": 4544,
      "pen": 4545,
      "artista": 4546,
      "##50": 4547,
      "##ico": 4548,
      "palig": 4549,
      "mahirap": 4550,
      "##cia": 4551,
      "july": 4552,
      "instit": 4553,
      "bagaman": 4554,
      "buy": 4555,
      "katotohanan": 4556,
      "00": 4557,
      "milyong": 4558,
      "company": 4559,
      "mass": 4560,
      "level": 4561,
      "##anti": 4562,
      "mand": 4563,
      "cat": 4564,
      "mabuti": 4565,
      "station": 4566,
      "ikin": 4567,
      "itlog": 4568,
      "mawala": 4569,
      "##con": 4570,
      "roque": 4571,
      "##shot": 4572,
      "form": 4573,
      "##ipe": 4574,
      "pambansang": 4575,
      "ofw": 4576,
      "bong": 4577,
      "rap": 4578,
      "kor": 4579,
      "sir": 4580,
      "visayas": 4581,
      "indus": 4582,
      "##ikasyon": 4583,
      "##ected": 4584,
      "##pp": 4585,
      "remain": 4586,
      "education": 4587,
      "pandem": 4588,
      "dil": 4589,
      "hayop": 4590,
      "hol": 4591,
      "##ame": 4592,
      "makikita": 4593,
      "days": 4594,
      "mangg": 4595,
      "hard": 4596,
      "hari": 4597,
      "populasyon": 4598,
      "##inding": 4599,
      "##agram": 4600,
      "##iban": 4601,
      "##ward": 4602,
      "alb": 4603,
      "expl": 4604,
      "alex": 4605,
      "both": 4606,
      "nakikita": 4607,
      "##my": 4608,
      "unit": 4609,
      "mapag": 4610,
      "hug": 4611,
      "##lay": 4612,
      "babaeng": 4613,
      "##iano": 4614,
      "stud": 4615,
      "##ando": 4616,
      "ibarra": 4617,
      "francis": 4618,
      "ipag": 4619,
      "##isan": 4620,
      "ginamit": 4621,
      "binubuo": 4622,
      "mismo": 4623,
      "##ules": 4624,
      "ident": 4625,
      "##ayat": 4626,
      "huk": 4627,
      "manl": 4628,
      "##ipat": 4629,
      "##uksa": 4630,
      "natut": 4631,
      "major": 4632,
      "kalag": 4633,
      "nagiging": 4634,
      "nail": 4635,
      "litrato": 4636,
      "cav": 4637,
      "elect": 4638,
      "including": 4639,
      "##ulin": 4640,
      "told": 4641,
      "mid": 4642,
      "gab": 4643,
      "sinus": 4644,
      "##anch": 4645,
      "equ": 4646,
      "industry": 4647,
      "grow": 4648,
      "puno": 4649,
      "nakas": 4650,
      "basket": 4651,
      "malaman": 4652,
      "##oo": 4653,
      "itinuturing": 4654,
      "##ubok": 4655,
      "malawak": 4656,
      "beses": 4657,
      "job": 4658,
      "hun": 4659,
      "assistance": 4660,
      "##awagan": 4661,
      "industr": 4662,
      "dad": 4663,
      "##ock": 4664,
      "instagram": 4665,
      "island": 4666,
      "polic": 4667,
      "##uot": 4668,
      "hy": 4669,
      "##ze": 4670,
      "coach": 4671,
      "##intay": 4672,
      "tor": 4673,
      "mapap": 4674,
      "many": 4675,
      "much": 4676,
      "another": 4677,
      "##ares": 4678,
      "##ured": 4679,
      "kabila": 4680,
      "gust": 4681,
      "resulta": 4682,
      "huli": 4683,
      "leon": 4684,
      "napag": 4685,
      "##ners": 4686,
      "tayong": 4687,
      "##ahati": 4688,
      "basta": 4689,
      "lakas": 4690,
      "sumusunod": 4691,
      "kult": 4692,
      "kahulugan": 4693,
      "##iza": 4694,
      "teor": 4695,
      "milyon": 4696,
      "kid": 4697,
      "siyempre": 4698,
      "##lin": 4699,
      "speak": 4700,
      "##while": 4701,
      "##ever": 4702,
      "pangkal": 4703,
      "turn": 4704,
      "tamang": 4705,
      "occ": 4706,
      "klase": 4707,
      "use": 4708,
      "tanging": 4709,
      "mamamayan": 4710,
      "##dang": 4711,
      "##aster": 4712,
      "##iao": 4713,
      "##ister": 4714,
      "kakay": 4715,
      "##ication": 4716,
      "mala": 4717,
      "##aysay": 4718,
      "dami": 4719,
      "express": 4720,
      "katol": 4721,
      "##usin": 4722,
      "##ived": 4723,
      "low": 4724,
      "shabu": 4725,
      "imper": 4726,
      "silangan": 4727,
      "authority": 4728,
      "april": 4729,
      "##ilidad": 4730,
      "effect": 4731,
      "iloilo": 4732,
      "administration": 4733,
      "front": 4734,
      "dat": 4735,
      "##me": 4736,
      "curr": 4737,
      "##hh": 4738,
      "central": 4739,
      "longshot": 4740,
      "##erence": 4741,
      "death": 4742,
      "ens": 4743,
      "##rat": 4744,
      "children": 4745,
      "none": 4746,
      "kaka": 4747,
      "farm": 4748,
      "hit": 4749,
      "military": 4750,
      "##arin": 4751,
      "##ween": 4752,
      "ol": 4753,
      "##ubre": 4754,
      "deg": 4755,
      "fest": 4756,
      "investigation": 4757,
      "##atayan": 4758,
      "doc": 4759,
      "kop": 4760,
      "round": 4761,
      "##ihim": 4762,
      "trav": 4763,
      "hul": 4764,
      "impormasyon": 4765,
      "##ages": 4766,
      "##isyong": 4767,
      "kaniya": 4768,
      "ps": 4769,
      "between": 4770,
      "pagaling": 4771,
      "proper": 4772,
      "asia": 4773,
      "##irahan": 4774,
      "sinto": 4775,
      "prans": 4776,
      "sistema": 4777,
      "##ton": 4778,
      "##ised": 4779,
      "makipag": 4780,
      "maayos": 4781,
      "##idente": 4782,
      "##asalamat": 4783,
      "cert": 4784,
      "##rabaho": 4785,
      "meanwhile": 4786,
      "bibig": 4787,
      "##ush": 4788,
      "ve": 4789,
      "tek": 4790,
      "##alawa": 4791,
      "cho": 4792,
      "sintomas": 4793,
      "phil": 4794,
      "anyo": 4795,
      "fact": 4796,
      "##ike": 4797,
      "##inggil": 4798,
      "proy": 4799,
      "##izens": 4800,
      "personnel": 4801,
      "masas": 4802,
      "##enue": 4803,
      "six": 4804,
      "meas": 4805,
      "pagalingin": 4806,
      "hinggil": 4807,
      "halip": 4808,
      "tug": 4809,
      "command": 4810,
      "ya": 4811,
      "##ves": 4812,
      "employ": 4813,
      "prin": 4814,
      "afp": 4815,
      "text": 4816,
      "nakaka": 4817,
      "komun": 4818,
      "palag": 4819,
      "imbest": 4820,
      "simple": 4821,
      "masy": 4822,
      "line": 4823,
      "legal": 4824,
      "atin": 4825,
      "##cept": 4826,
      "senior": 4827,
      "##atives": 4828,
      "ge": 4829,
      "lokal": 4830,
      "ent": 4831,
      "trade": 4832,
      "##aly": 4833,
      "rate": 4834,
      "inde": 4835,
      "##aming": 4836,
      "sea": 4837,
      "##unawa": 4838,
      "box": 4839,
      "paaralan": 4840,
      "##acy": 4841,
      "third": 4842,
      "enf": 4843,
      "##ahanan": 4844,
      "projects": 4845,
      "cot": 4846,
      "recov": 4847,
      "kastila": 4848,
      "env": 4849,
      "ibinigay": 4850,
      "siglo": 4851,
      "pagpapat": 4852,
      "task": 4853,
      "fa": 4854,
      "training": 4855,
      "role": 4856,
      "serye": 4857,
      "estab": 4858,
      "direct": 4859,
      "reported": 4860,
      "live": 4861,
      "target": 4862,
      "vac": 4863,
      "bint": 4864,
      "sya": 4865,
      "##uation": 4866,
      "medyo": 4867,
      "45": 4868,
      "chec": 4869,
      "suc": 4870,
      "##leng": 4871,
      "gold": 4872,
      "##usugan": 4873,
      "publiko": 4874,
      "rol": 4875,
      "gitna": 4876,
      "##ario": 4877,
      "sour": 4878,
      "ganito": 4879,
      "fel": 4880,
      "serbisyo": 4881,
      "##inos": 4882,
      "unders": 4883,
      "mayo": 4884,
      "gayon": 4885,
      "##ayaan": 4886,
      "wag": 4887,
      "norte": 4888,
      "economic": 4889,
      "mapupuksa": 4890,
      "korea": 4891,
      "##abato": 4892,
      "dalaga": 4893,
      "effort": 4894,
      "prot": 4895,
      "thank": 4896,
      "espir": 4897,
      "mess": 4898,
      "ituring": 4899,
      "career": 4900,
      "bumaba": 4901,
      "bank": 4902,
      "##uya": 4903,
      "hold": 4904,
      "appl": 4905,
      "lap": 4906,
      "modern": 4907,
      "light": 4908,
      "hon": 4909,
      "##ibers": 4910,
      "pinas": 4911,
      "layunin": 4912,
      "##ding": 4913,
      "pc": 4914,
      "continue": 4915,
      "saka": 4916,
      "terror": 4917,
      "impro": 4918,
      "kristiyano": 4919,
      "kaharian": 4920,
      "##ained": 4921,
      "resol": 4922,
      "##ensya": 4923,
      "chairman": 4924,
      "zambo": 4925,
      "##ided": 4926,
      "lalaking": 4927,
      "balita": 4928,
      "##ius": 4929,
      "dagdagan": 4930,
      "concern": 4931,
      "magm": 4932,
      "sinasabing": 4933,
      "chal": 4934,
      "seksuwal": 4935,
      "pinam": 4936,
      "##kas": 4937,
      "##ulture": 4938,
      "##omb": 4939,
      "##point": 4940,
      "sek": 4941,
      "magka": 4942,
      "##aliwanag": 4943,
      "sinaunang": 4944,
      "give": 4945,
      "units": 4946,
      "##put": 4947,
      "ple": 4948,
      "women": 4949,
      "plast": 4950,
      "banal": 4951,
      "ger": 4952,
      "papel": 4953,
      "##ahim": 4954,
      "##ikan": 4955,
      "##lamo": 4956,
      "address": 4957,
      "##akailan": 4958,
      "gano": 4959,
      "seg": 4960,
      "birth": 4961,
      "##ingin": 4962,
      "europa": 4963,
      "hist": 4964,
      "vs": 4965,
      "rice": 4966,
      "alleg": 4967,
      "ganap": 4968,
      "capit": 4969,
      "sikat": 4970,
      "normal": 4971,
      "iw": 4972,
      "##acan": 4973,
      "respect": 4974,
      "##unch": 4975,
      "probins": 4976,
      "differ": 4977,
      "nangangahulugan": 4978,
      "du": 4979,
      "paggawa": 4980,
      "pagsis": 4981,
      "congress": 4982,
      "umabot": 4983,
      "##onz": 4984,
      "muslim": 4985,
      "palak": 4986,
      "nation": 4987,
      "##undin": 4988,
      "narar": 4989,
      "balik": 4990,
      "##mar": 4991,
      "kasalukuyan": 4992,
      "gumagamit": 4993,
      "great": 4994,
      "spokesperson": 4995,
      "entertain": 4996,
      "pelikulang": 4997,
      "each": 4998,
      "impl": 4999,
      "samantalang": 5000,
      "makab": 5001,
      "europe": 5002,
      "##nd": 5003,
      "##aign": 5004,
      "##til": 5005,
      "##posed": 5006,
      "pumasok": 5007,
      "yon": 5008,
      "black": 5009,
      "tagalog": 5010,
      "kamatayan": 5011,
      "campaign": 5012,
      "festival": 5013,
      "production": 5014,
      "susp": 5015,
      "##igasyon": 5016,
      "##kan": 5017,
      "sis": 5018,
      "association": 5019,
      "makap": 5020,
      "protect": 5021,
      "##ension": 5022,
      "##ibay": 5023,
      "posibleng": 5024,
      "##uka": 5025,
      "cab": 5026,
      "pablo": 5027,
      "##onment": 5028,
      "mukhang": 5029,
      "usapan": 5030,
      "always": 5031,
      "rehiyon": 5032,
      "##utok": 5033,
      "mult": 5034,
      "baby": 5035,
      "sunday": 5036,
      "pagkab": 5037,
      "however": 5038,
      "kasalanan": 5039,
      "##ilities": 5040,
      "##ibang": 5041,
      "islam": 5042,
      "##syon": 5043,
      "##amo": 5044,
      "bukas": 5045,
      "global": 5046,
      "##ening": 5047,
      "god": 5048,
      "operasyon": 5049,
      "nait": 5050,
      "private": 5051,
      "micha": 5052,
      "surg": 5053,
      "martin": 5054,
      "place": 5055,
      "kanluran": 5056,
      "##ped": 5057,
      "##hal": 5058,
      "##aril": 5059,
      "##iti": 5060,
      "nung": 5061,
      "gulang": 5062,
      "##upa": 5063,
      "##iminal": 5064,
      "why": 5065,
      "cir": 5066,
      "hilagang": 5067,
      "##emang": 5068,
      "panalo": 5069,
      "lalong": 5070,
      "never": 5071,
      "august": 5072,
      "##ke": 5073,
      "nagbigay": 5074,
      "panda": 5075,
      "##alarawan": 5076,
      "dek": 5077,
      "idin": 5078,
      "##ned": 5079,
      "##ican": 5080,
      "##ering": 5081,
      "##ordin": 5082,
      "nanan": 5083,
      "wa": 5084,
      "##ney": 5085,
      "pulisya": 5086,
      "##urse": 5087,
      "cand": 5088,
      "ikat": 5089,
      "kumak": 5090,
      "prop": 5091,
      "amerika": 5092,
      "##ukas": 5093,
      "194": 5094,
      "##aliksik": 5095,
      "agric": 5096,
      "ekonomiya": 5097,
      "forum": 5098,
      "35": 5099,
      "espirit": 5100,
      "driver": 5101,
      "kasong": 5102,
      "##iter": 5103,
      "basketball": 5104,
      "##iin": 5105,
      "treatment": 5106,
      "##sing": 5107,
      "agu": 5108,
      "present": 5109,
      "vari": 5110,
      "sasakyan": 5111,
      "##come": 5112,
      "kumuha": 5113,
      "hope": 5114,
      "kinak": 5115,
      "libre": 5116,
      "king": 5117,
      "iyan": 5118,
      "doktor": 5119,
      "pinuno": 5120,
      "##anes": 5121,
      "lt": 5122,
      "##alataya": 5123,
      "dist": 5124,
      "##oration": 5125,
      "espes": 5126,
      "memor": 5127,
      "sigur": 5128,
      "panay": 5129,
      "##unlad": 5130,
      "paligid": 5131,
      "sumunod": 5132,
      "nagbab": 5133,
      "##ruction": 5134,
      "negosyo": 5135,
      "##ahid": 5136,
      "##ank": 5137,
      "##ingan": 5138,
      "tauhan": 5139,
      "september": 5140,
      "daniel": 5141,
      "##hod": 5142,
      "airport": 5143,
      "lg": 5144,
      "enforc": 5145,
      "##enz": 5146,
      "story": 5147,
      "ganda": 5148,
      "regular": 5149,
      "bad": 5150,
      "##elle": 5151,
      "##inang": 5152,
      "compet": 5153,
      "cotabato": 5154,
      "going": 5155,
      "sor": 5156,
      "##cially": 5157,
      "imm": 5158,
      "ong": 5159,
      "eduk": 5160,
      "##los": 5161,
      "conference": 5162,
      "##awing": 5163,
      "2015": 5164,
      "##col": 5165,
      "flo": 5166,
      "##hout": 5167,
      "michael": 5168,
      "kontra": 5169,
      "qual": 5170,
      "##utang": 5171,
      "##ampalataya": 5172,
      "##thers": 5173,
      "octo": 5174,
      "32": 5175,
      "##bayan": 5176,
      "patak": 5177,
      "samp": 5178,
      "##amba": 5179,
      "filipinos": 5180,
      "zamboanga": 5181,
      "##orth": 5182,
      "likod": 5183,
      "##uck": 5184,
      "pamamaraan": 5185,
      "russ": 5186,
      "##ges": 5187,
      "spec": 5188,
      "##entong": 5189,
      "mall": 5190,
      "lunes": 5191,
      "led": 5192,
      "nyo": 5193,
      "sabay": 5194,
      "mahalaga": 5195,
      "cell": 5196,
      "##ators": 5197,
      "asya": 5198,
      "##unting": 5199,
      "##ilos": 5200,
      "lear": 5201,
      "##unuan": 5202,
      "least": 5203,
      "##asya": 5204,
      "pagbibigay": 5205,
      "mait": 5206,
      "emerg": 5207,
      "##oting": 5208,
      "##hiya": 5209,
      "enero": 5210,
      "##alakay": 5211,
      "60": 5212,
      "ekz": 5213,
      "ce": 5214,
      "travel": 5215,
      "municip": 5216,
      "##ataw": 5217,
      "amerik": 5218,
      "espe": 5219,
      "##oderil": 5220,
      "##idel": 5221,
      "antas": 5222,
      "indib": 5223,
      "##rob": 5224,
      "griy": 5225,
      "katangian": 5226,
      "tangga": 5227,
      "##our": 5228,
      "challeng": 5229,
      "got": 5230,
      "##alapit": 5231,
      "tu": 5232,
      "##ying": 5233,
      "##ubuhay": 5234,
      "##ises": 5235,
      "marso": 5236,
      "##kod": 5237,
      "bibliya": 5238,
      "concert": 5239,
      "grand": 5240,
      "ekzoderil": 5241,
      "anton": 5242,
      "given": 5243,
      "gustong": 5244,
      "vir": 5245,
      "php1": 5246,
      "oo": 5247,
      "alm": 5248,
      "##asalita": 5249,
      "envir": 5250,
      "launch": 5251,
      "member": 5252,
      "earl": 5253,
      "##used": 5254,
      "clos": 5255,
      "alden": 5256,
      "##istang": 5257,
      "##unds": 5258,
      "##olar": 5259,
      "bon": 5260,
      "reyes": 5261,
      "##iro": 5262,
      "singer": 5263,
      "##alia": 5264,
      "october": 5265,
      "romano": 5266,
      "pangkalahat": 5267,
      "196": 5268,
      "money": 5269,
      "pinan": 5270,
      "kongres": 5271,
      "pans": 5272,
      "invol": 5273,
      "##orte": 5274,
      "##encies": 5275,
      "estudy": 5276,
      "##usang": 5277,
      "prim": 5278,
      "##iate": 5279,
      "establish": 5280,
      "##ule": 5281,
      "indibid": 5282,
      "rain": 5283,
      "##onan": 5284,
      "break": 5285,
      "son": 5286,
      "song": 5287,
      "come": 5288,
      "##ugto": 5289,
      "division": 5290,
      "##agong": 5291,
      "punong": 5292,
      "galit": 5293,
      "ver": 5294,
      "##time": 5295,
      "kinabib": 5296,
      "makati": 5297,
      "nakakat": 5298,
      "environment": 5299,
      "cag": 5300,
      "garcia": 5301,
      "tinawag": 5302,
      "##mb": 5303,
      "##gar": 5304,
      "gal": 5305,
      "data": 5306,
      "epektibong": 5307,
      "##iwasan": 5308,
      "gayundin": 5309,
      "##ply": 5310,
      "impe": 5311,
      "january": 5312,
      "##yag": 5313,
      "##oko": 5314,
      "negros": 5315,
      "until": 5316,
      "##oun": 5317,
      "especially": 5318,
      "cup": 5319,
      "marawi": 5320,
      "agham": 5321,
      "##away": 5322,
      "cin": 5323,
      "nagmula": 5324,
      "##rap": 5325,
      "deb": 5326,
      "esk": 5327,
      "manager": 5328,
      "cit": 5329,
      "body": 5330,
      "sabado": 5331,
      "tourism": 5332,
      "tsina": 5333,
      "##dr": 5334,
      "short": 5335,
      "##anggal": 5336,
      "meeting": 5337,
      "months": 5338,
      "##nang": 5339,
      "labis": 5340,
      "kayang": 5341,
      "bern": 5342,
      "ray": 5343,
      "plano": 5344,
      "traff": 5345,
      "victor": 5346,
      "##dir": 5347,
      "check": 5348,
      "jos": 5349,
      "foot": 5350,
      "##onya": 5351,
      "away": 5352,
      "paliwanag": 5353,
      "##ean": 5354,
      "somet": 5355,
      "slim": 5356,
      "issue": 5357,
      "entertainment": 5358,
      "sanggol": 5359,
      "remedyo": 5360,
      "visit": 5361,
      "watch": 5362,
      "hunyo": 5363,
      "better": 5364,
      "fer": 5365,
      "agre": 5366,
      "##mo": 5367,
      "##iving": 5368,
      "aleman": 5369,
      "action": 5370,
      "##osa": 5371,
      "##aloob": 5372,
      "fed": 5373,
      "taba": 5374,
      "full": 5375,
      "kump": 5376,
      "lalak": 5377,
      "strong": 5378,
      "fur": 5379,
      "pinags": 5380,
      "##iod": 5381,
      "awtor": 5382,
      "dela": 5383,
      "maip": 5384,
      "surgery": 5385,
      "pagtit": 5386,
      "##agaling": 5387,
      "##mm": 5388,
      "kinabibilangan": 5389,
      "##ueva": 5390,
      "pandemic": 5391,
      "##ukuha": 5392,
      "##bing": 5393,
      "takot": 5394,
      "wal": 5395,
      "activities": 5396,
      "lipunan": 5397,
      "##atory": 5398,
      "sang": 5399,
      "##omm": 5400,
      "armed": 5401,
      "##aron": 5402,
      "##lex": 5403,
      "ste": 5404,
      "##nt": 5405,
      "##ugnay": 5406,
      "appe": 5407,
      "##ekt": 5408,
      "pinagb": 5409,
      "earlier": 5410,
      "forces": 5411,
      "iv": 5412,
      "pangh": 5413,
      "##alde": 5414,
      "kadalas": 5415,
      "kasapi": 5416,
      "left": 5417,
      "coco": 5418,
      "abril": 5419,
      "militar": 5420,
      "bato": 5421,
      "asian": 5422,
      "salamat": 5423,
      "##aha": 5424,
      "circ": 5425,
      "staff": 5426,
      "##alaan": 5427,
      "nanin": 5428,
      "##21": 5429,
      "mel": 5430,
      "##inabang": 5431,
      "kaalaman": 5432,
      "dre": 5433,
      "##anggi": 5434,
      "pagtut": 5435,
      "famili": 5436,
      "used": 5437,
      "contract": 5438,
      "##ipunan": 5439,
      "##zz": 5440,
      "unk": 5441,
      "##ris": 5442,
      "##ender": 5443,
      "pu": 5444,
      "tre": 5445,
      "agosto": 5446,
      "malac": 5447,
      "following": 5448,
      "33": 5449,
      "arab": 5450,
      "bol": 5451,
      "##ald": 5452,
      "##ler": 5453,
      "##ipon": 5454,
      "##yat": 5455,
      "miguel": 5456,
      "proseso": 5457,
      "tahanan": 5458,
      "pananaw": 5459,
      "cer": 5460,
      "facial": 5461,
      "ori": 5462,
      "##uit": 5463,
      "##amilya": 5464,
      "along": 5465,
      "okt": 5466,
      "##unga": 5467,
      "nangyayari": 5468,
      "governor": 5469,
      "##uyan": 5470,
      "##ilim": 5471,
      "music": 5472,
      "salv": 5473,
      "virus": 5474,
      "##ruct": 5475,
      "lupain": 5476,
      "kayong": 5477,
      "maint": 5478,
      "period": 5479,
      "cavite": 5480,
      "karapatan": 5481,
      "paghahanda": 5482,
      "los": 5483,
      "dest": 5484,
      "et": 5485,
      "announ": 5486,
      "bigyan": 5487,
      "nabanggit": 5488,
      "pot": 5489,
      "katao": 5490,
      "unti": 5491,
      "##aging": 5492,
      "disyembre": 5493,
      "emb": 5494,
      "avail": 5495,
      "affair": 5496,
      "panuk": 5497,
      "kaugnayan": 5498,
      "##esis": 5499,
      "belie": 5500,
      "grab": 5501,
      "##ips": 5502,
      "sistemang": 5503,
      "dead": 5504,
      "##ihintay": 5505,
      "##eda": 5506,
      "max": 5507,
      "able": 5508,
      "##atiling": 5509,
      "tumutukoy": 5510,
      "desisyon": 5511,
      "civ": 5512,
      "overs": 5513,
      "##ams": 5514,
      "brgy": 5515,
      "plastic": 5516,
      "ai": 5517,
      "matinding": 5518,
      "kalusugan": 5519,
      "##iding": 5520,
      "folk": 5521,
      "working": 5522,
      "##ihirap": 5523,
      "republic": 5524,
      "nakuha": 5525,
      "produc": 5526,
      "worth": 5527,
      "aral": 5528,
      "ih": 5529,
      "daigdig": 5530,
      "kilalang": 5531,
      "katoliko": 5532,
      "36": 5533,
      "finan": 5534,
      "pandaigdig": 5535,
      "##atig": 5536,
      "elections": 5537,
      "70": 5538,
      "##less": 5539,
      "okay": 5540,
      "tingin": 5541,
      "##abagong": 5542,
      "kada": 5543,
      "surve": 5544,
      "naganap": 5545,
      "mahalagang": 5546,
      "ospital": 5547,
      "nawala": 5548,
      "##ough": 5549,
      "pict": 5550,
      "victim": 5551,
      "sarah": 5552,
      "design": 5553,
      "magbigay": 5554,
      "guro": 5555,
      "##ulit": 5556,
      "held": 5557,
      "niyo": 5558,
      "##paman": 5559,
      "tekn": 5560,
      "##rup": 5561,
      "pors": 5562,
      "magkano": 5563,
      "matut": 5564,
      "proyekto": 5565,
      "pba": 5566,
      "bulacan": 5567,
      "##iliit": 5568,
      "return": 5569,
      "##fer": 5570,
      "38": 5571,
      "##pekt": 5572,
      "site": 5573,
      "hak": 5574,
      "kamakailan": 5575,
      "##yer": 5576,
      "coop": 5577,
      "swe": 5578,
      "##ss": 5579,
      "veh": 5580,
      "malinaw": 5581,
      "500": 5582,
      "pangyayari": 5583,
      "kapuso": 5584,
      "yes": 5585,
      "different": 5586,
      "estr": 5587,
      "uod": 5588,
      "oktubre": 5589,
      "confir": 5590,
      "maik": 5591,
      "ron": 5592,
      "kuya": 5593,
      "##wd": 5594,
      "mai": 5595,
      "claim": 5596,
      "nagawa": 5597,
      "sure": 5598,
      "##joy": 5599,
      "quarter": 5600,
      "##win": 5601,
      "komp": 5602,
      "view": 5603,
      "safety": 5604,
      "internet": 5605,
      "ebang": 5606,
      "bumalik": 5607,
      "##urg": 5608,
      "##ulugang": 5609,
      "cash": 5610,
      "pamant": 5611,
      "kond": 5612,
      "source": 5613,
      "labanan": 5614,
      "ton": 5615,
      "mens": 5616,
      "pangan": 5617,
      "hawak": 5618,
      "hulyo": 5619,
      "ilog": 5620,
      "lagi": 5621,
      "page": 5622,
      "##sang": 5623,
      "sust": 5624,
      "sulat": 5625,
      "isab": 5626,
      "pondo": 5627,
      "laging": 5628,
      "##icle": 5629,
      "##pi": 5630,
      "sever": 5631,
      "##akbo": 5632,
      "makakuha": 5633,
      "breast": 5634,
      "##ications": 5635,
      "shared": 5636,
      "pup": 5637,
      "##illo": 5638,
      "sery": 5639,
      "##men": 5640,
      "##itiko": 5641,
      "##tra": 5642,
      "kinakailangan": 5643,
      "pangung": 5644,
      "prior": 5645,
      "products": 5646,
      "##onood": 5647,
      "80": 5648,
      "kabuuang": 5649,
      "193": 5650,
      "cop": 5651,
      "rating": 5652,
      "stop": 5653,
      "ukol": 5654,
      "binata": 5655,
      "malacanang": 5656,
      "ebanghel": 5657,
      "kasing": 5658,
      "tig": 5659,
      "card": 5660,
      "rights": 5661,
      "incident": 5662,
      "##aryong": 5663,
      "##gether": 5664,
      "relihiyon": 5665,
      "##anteng": 5666,
      "mol": 5667,
      "##ude": 5668,
      "dip": 5669,
      "pumunta": 5670,
      "##aksiyon": 5671,
      "foc": 5672,
      "inj": 5673,
      "bring": 5674,
      "tumat": 5675,
      "##usa": 5676,
      "interest": 5677,
      "##atayang": 5678,
      "teleb": 5679,
      "puwede": 5680,
      "satur": 5681,
      "kumain": 5682,
      "webs": 5683,
      "bub": 5684,
      "nanay": 5685,
      "capital": 5686,
      "temp": 5687,
      "imbestigasyon": 5688,
      "epis": 5689,
      "##isasyon": 5690,
      "nob": 5691,
      "gayunpaman": 5692,
      "biglang": 5693,
      "binti": 5694,
      "darating": 5695,
      "bawal": 5696,
      "provide": 5697,
      "mangy": 5698,
      "##dea": 5699,
      "##ift": 5700,
      "ugnayan": 5701,
      "estudyante": 5702,
      "##tok": 5703,
      "amo": 5704,
      "pinat": 5705,
      "college": 5706,
      "##ungkot": 5707,
      "others": 5708,
      "fun": 5709,
      "fern": 5710,
      "pangangailangan": 5711,
      "cost": 5712,
      "dakong": 5713,
      "boyfriend": 5714,
      "hotel": 5715,
      "##ayad": 5716,
      "##ides": 5717,
      "problem": 5718,
      "kilomet": 5719,
      "##thing": 5720,
      "santo": 5721,
      "monitor": 5722,
      "iisip": 5723,
      "lumang": 5724,
      "##cp": 5725,
      "pinakamalaking": 5726,
      "financial": 5727,
      "plac": 5728,
      "palabas": 5729,
      "##gest": 5730,
      "silangang": 5731,
      "##ani": 5732,
      "##dy": 5733,
      "##ately": 5734,
      "##itaw": 5735,
      "decl": 5736,
      "##unong": 5737,
      "##rip": 5738,
      "slimming": 5739,
      "together": 5740,
      "park": 5741,
      "##ahok": 5742,
      "##osop": 5743,
      "pagsubok": 5744,
      "pagtaas": 5745,
      "scre": 5746,
      "sens": 5747,
      "kapamilya": 5748,
      "naglalaman": 5749,
      "control": 5750,
      "simbahang": 5751,
      "pray": 5752,
      "canc": 5753,
      "kasunod": 5754,
      "pansin": 5755,
      "does": 5756,
      "noby": 5757,
      "##ebrero": 5758,
      "##uio": 5759,
      "distrib": 5760,
      "fair": 5761,
      "li": 5762,
      "leb": 5763,
      "ipinap": 5764,
      "kand": 5765,
      "residente": 5766,
      "file": 5767,
      "##agsak": 5768,
      "##erk": 5769,
      "december": 5770,
      "pwede": 5771,
      "##ane": 5772,
      "building": 5773,
      "halaman": 5774,
      "##itional": 5775,
      "isinas": 5776,
      "ham": 5777,
      "pamahid": 5778,
      "lady": 5779,
      "without": 5780,
      "pebrero": 5781,
      "nobyembre": 5782,
      "green": 5783,
      "##agin": 5784,
      "laki": 5785,
      "##erc": 5786,
      "##mail": 5787,
      "alleged": 5788,
      "access": 5789,
      "asked": 5790,
      "affected": 5791,
      "lak": 5792,
      "##yle": 5793,
      "insidente": 5794,
      "##esery": 5795,
      "pina": 5796,
      "##itter": 5797,
      "##anas": 5798,
      "states": 5799,
      "maliliit": 5800,
      "bust": 5801,
      "damit": 5802,
      "pacqu": 5803,
      "awtoridad": 5804,
      "##asanay": 5805,
      "infl": 5806,
      "magsas": 5807,
      "##ails": 5808,
      "nau": 5809,
      "##ipin": 5810,
      "p2": 5811,
      "##yun": 5812,
      "##tries": 5813,
      "senado": 5814,
      "##akda": 5815,
      "##imin": 5816,
      "times": 5817,
      "further": 5818,
      "kalagayan": 5819,
      "close": 5820,
      "##antay": 5821,
      "maaring": 5822,
      "lor": 5823,
      "indones": 5824,
      "liza": 5825,
      "##alitan": 5826,
      "alt": 5827,
      "##ened": 5828,
      "antonio": 5829,
      "sta": 5830,
      "##ernes": 5831,
      "##agumpay": 5832,
      "##ection": 5833,
      "##ired": 5834,
      "unibers": 5835,
      "magn": 5836,
      "pinagm": 5837,
      "##str": 5838,
      "within": 5839,
      "pamil": 5840,
      "pigment": 5841,
      "tingnan": 5842,
      "coordin": 5843,
      "puro": 5844,
      "##ross": 5845,
      "magkakaroon": 5846,
      "pacquiao": 5847,
      "##acio": 5848,
      "natag": 5849,
      "player": 5850,
      "actually": 5851,
      "##emat": 5852,
      "ipinanganak": 5853,
      "edukasyon": 5854,
      "setyembre": 5855,
      "arch": 5856,
      "hall": 5857,
      "kababayan": 5858,
      "step": 5859,
      "chan": 5860,
      "##umbas": 5861,
      "popular": 5862,
      "##amitan": 5863,
      "constit": 5864,
      "34": 5865,
      "santi": 5866,
      "##earch": 5867,
      "##akl": 5868,
      "espanya": 5869,
      "maliban": 5870,
      "resour": 5871,
      "trip": 5872,
      "##wasyon": 5873,
      "laman": 5874,
      "##ds": 5875,
      "arr": 5876,
      "ber": 5877,
      "eksena": 5878,
      "langit": 5879,
      "##akop": 5880,
      "##apo": 5881,
      "possible": 5882,
      "vacc": 5883,
      "makas": 5884,
      "masyadong": 5885,
      "padilla": 5886,
      "rm": 5887,
      "ibabaw": 5888,
      "##vin": 5889,
      "leaders": 5890,
      "bos": 5891,
      "##ahalaga": 5892,
      "##iyal": 5893,
      "queen": 5894,
      "agencies": 5895,
      "affairs": 5896,
      "##utol": 5897,
      "enjoy": 5898,
      "called": 5899,
      "saturday": 5900,
      "binigyan": 5901,
      "##enda": 5902,
      "birthday": 5903,
      "##amahan": 5904,
      "##irit": 5905,
      "larangan": 5906,
      "##hen": 5907,
      "kapitan": 5908,
      "kadalasang": 5909,
      "pilosop": 5910,
      "ilocos": 5911,
      "mother": 5912,
      "november": 5913,
      "ensure": 5914,
      "kalik": 5915,
      "lima": 5916,
      "lac": 5917,
      "supre": 5918,
      "##uni": 5919,
      "##igpit": 5920,
      "##akat": 5921,
      "code": 5922,
      "##aa": 5923,
      "email": 5924,
      "laguna": 5925,
      "bigla": 5926,
      "totoong": 5927,
      "pareho": 5928,
      "pangarap": 5929,
      "##ving": 5930,
      "less": 5931,
      "pitong": 5932,
      "cagayan": 5933,
      "baguio": 5934,
      "##maan": 5935,
      "inspir": 5936,
      "residents": 5937,
      "decision": 5938,
      "biyernes": 5939,
      "##ortahan": 5940,
      "hahah": 5941,
      "particip": 5942,
      "##adem": 5943,
      "umalis": 5944,
      "saying": 5945,
      "##tegr": 5946,
      "sector": 5947,
      "wid": 5948,
      "book": 5949,
      "##inom": 5950,
      "research": 5951,
      "kasabay": 5952,
      "twitter": 5953,
      "##iyahan": 5954,
      "ordin": 5955,
      "reach": 5956,
      "gul": 5957,
      "technology": 5958,
      "##rod": 5959,
      "##ansa": 5960,
      "champion": 5961,
      "obser": 5962,
      "indibidwal": 5963,
      "padre": 5964,
      "ikatlong": 5965,
      "families": 5966,
      "##anah": 5967,
      "kaagad": 5968,
      "##abog": 5969,
      "##ayap": 5970,
      "mababang": 5971,
      "risk": 5972,
      "##ession": 5973,
      "##unog": 5974,
      "ate": 5975,
      "##elec": 5976,
      "##ihinal": 5977,
      "marian": 5978,
      "##amant": 5979,
      "transportation": 5980,
      "once": 5981,
      "kultura": 5982,
      "band": 5983,
      "mismong": 5984,
      "binab": 5985,
      "handa": 5986,
      "suporta": 5987,
      "##akilala": 5988,
      "kawalan": 5989,
      "##pas": 5990,
      "kala": 5991,
      "puwesto": 5992,
      "dol": 5993,
      "emplo": 5994,
      "##agawang": 5995,
      "fut": 5996,
      "friends": 5997,
      "employe": 5998,
      "pi": 5999,
      "ll": 6000,
      "##yl": 6001,
      "wel": 6002,
      "puwedeng": 6003,
      "##bre": 6004,
      "paniniwala": 6005,
      "beauty": 6006,
      "##load": 6007,
      "guest": 6008,
      "##izen": 6009,
      "enforcement": 6010,
      "##ague": 6011,
      "orihinal": 6012,
      "##aresto": 6013,
      "##ability": 6014,
      "yet": 6015,
      "wes": 6016,
      "balak": 6017,
      "santa": 6018,
      "##into": 6019,
      "37": 6020,
      "dot": 6021,
      "comelec": 6022,
      "2013": 6023,
      "champions": 6024,
      "##alaban": 6025,
      "prem": 6026,
      "posisyon": 6027,
      "positive": 6028,
      "lam": 6029,
      "##using": 6030,
      "hangin": 6031,
      "municipal": 6032,
      "tungkulin": 6033,
      "korte": 6034,
      "works": 6035,
      "mur": 6036,
      "##imulang": 6037,
      "deng": 6038,
      "##alangin": 6039,
      "richard": 6040,
      "tipan": 6041,
      "gonz": 6042,
      "##ping": 6043,
      "##px": 6044,
      "##erek": 6045,
      "##idence": 6046,
      "##eter": 6047,
      "manlalaro": 6048,
      "west": 6049,
      "gumagawa": 6050,
      "honey": 6051,
      "##gaw": 6052,
      "pangalang": 6053,
      "name": 6054,
      "espiritu": 6055,
      "masama": 6056,
      "mateo": 6057,
      "##down": 6058,
      "arrested": 6059,
      "seven": 6060,
      "pedro": 6061,
      "asean": 6062,
      "anne": 6063,
      "##uda": 6064,
      "##unities": 6065,
      "mob": 6066,
      "##nam": 6067,
      "title": 6068,
      "##irma": 6069,
      "naa": 6070,
      "##aving": 6071,
      "nakar": 6072,
      "expected": 6073,
      "hirap": 6074,
      "##ats": 6075,
      "##ically": 6076,
      "nabubuhay": 6077,
      "##enyo": 6078,
      "maine": 6079,
      "##ensive": 6080,
      "remate": 6081,
      "ganoon": 6082,
      "stay": 6083,
      "##ycle": 6084,
      "tem": 6085,
      "##aged": 6086,
      "organization": 6087,
      "esc": 6088,
      "##bit": 6089,
      "isda": 6090,
      "came": 6091,
      "##ayagan": 6092,
      "##ahimik": 6093,
      "kumb": 6094,
      "##ored": 6095,
      "awards": 6096,
      "kapit": 6097,
      "##imen": 6098,
      "bid": 6099,
      "students": 6100,
      "isk": 6101,
      "solusyon": 6102,
      "batangas": 6103,
      "##reh": 6104,
      "telebisyon": 6105,
      "##tang": 6106,
      "##be": 6107,
      "makik": 6108,
      "message": 6109,
      "website": 6110,
      "farmers": 6111,
      "eastern": 6112,
      "talent": 6113,
      "hakbang": 6114,
      "leader": 6115,
      "##aries": 6116,
      "2014": 6117,
      "bacol": 6118,
      "##diriwang": 6119,
      "##itt": 6120,
      "magsis": 6121,
      "##awad": 6122,
      "side": 6123,
      "akala": 6124,
      "##peto": 6125,
      "##uwang": 6126,
      "gawaing": 6127,
      "##gen": 6128,
      "sama": 6129,
      "##ills": 6130,
      "mir": 6131,
      "##undan": 6132,
      "##vid": 6133,
      "itinatag": 6134,
      "date": 6135,
      "febr": 6136,
      "pdea": 6137,
      "success": 6138,
      "mos": 6139,
      "near": 6140,
      "today": 6141,
      "##une": 6142,
      "##ores": 6143,
      "mamb": 6144,
      "presidente": 6145,
      "##alakas": 6146,
      "##ger": 6147,
      "mensahe": 6148,
      "panelo": 6149,
      "lalake": 6150,
      "##sk": 6151,
      "vers": 6152,
      "early": 6153,
      "##asaad": 6154,
      "##yone": 6155,
      "brand": 6156,
      "##cter": 6157,
      "pook": 6158,
      "something": 6159,
      "namam": 6160,
      "baut": 6161,
      "increase": 6162,
      "##enteng": 6163,
      "##30": 6164,
      "relations": 6165,
      "##mon": 6166,
      "february": 6167,
      "proto": 6168,
      "mail": 6169,
      "patungo": 6170,
      "digmaan": 6171,
      "rebo": 6172,
      "##uce": 6173,
      "09": 6174,
      "madagdagan": 6175,
      "rehab": 6176,
      "katumbas": 6177,
      "ebanghelyo": 6178,
      "napaka": 6179,
      "grad": 6180,
      "testing": 6181,
      "sukat": 6182,
      "several": 6183,
      "##ew": 6184,
      "ath": 6185,
      "angk": 6186,
      "##ential": 6187,
      "utos": 6188,
      "bacolod": 6189,
      "##yano": 6190,
      "drama": 6191,
      "ball": 6192,
      "join": 6193,
      "flight": 6194,
      "limit": 6195,
      "move": 6196,
      "90": 6197,
      "awit": 6198,
      "hab": 6199,
      "kalikasan": 6200,
      "##inta": 6201,
      "manun": 6202,
      "tradisyon": 6203,
      "likas": 6204,
      "propes": 6205,
      "partners": 6206,
      "##bal": 6207,
      "kinilala": 6208,
      "traffic": 6209,
      "pabor": 6210,
      "single": 6211,
      "damd": 6212,
      "east": 6213,
      "telesery": 6214,
      "sot": 6215,
      "mano": 6216,
      "matatanda": 6217,
      "pagsusuri": 6218,
      "assistant": 6219,
      "small": 6220,
      "##ikap": 6221,
      "##unawaan": 6222,
      "iisang": 6223,
      "joint": 6224,
      "##olusyon": 6225,
      "##undok": 6226,
      "##ahad": 6227,
      "##ring": 6228,
      "individ": 6229,
      "poe": 6230,
      "panin": 6231,
      "half": 6232,
      "kristo": 6233,
      "profess": 6234,
      "experience": 6235,
      "beh": 6236,
      "##fr": 6237,
      "kakayahan": 6238,
      "francisco": 6239,
      "ginawang": 6240,
      "pong": 6241,
      "nand": 6242,
      "david": 6243,
      "defense": 6244,
      "albay": 6245,
      "##ym": 6246,
      "##imulan": 6247,
      "##hol": 6248,
      "partner": 6249,
      "keep": 6250,
      "share": 6251,
      "santiago": 6252,
      "supply": 6253,
      "sad": 6254,
      "luis": 6255,
      "output": 6256,
      "##ament": 6257,
      "making": 6258,
      "##usal": 6259,
      "igles": 6260,
      "mais": 6261,
      "course": 6262,
      "mabuting": 6263,
      "threat": 6264,
      "village": 6265,
      "growth": 6266,
      "integr": 6267,
      "received": 6268,
      "nic": 6269,
      "##oma": 6270,
      "gus": 6271,
      "pari": 6272,
      "##li": 6273,
      "##ead": 6274,
      "performance": 6275,
      "dev": 6276,
      "##ume": 6277,
      "##ification": 6278,
      "##agamot": 6279,
      "doub": 6280,
      "italya": 6281,
      "sining": 6282,
      "##gin": 6283,
      "##idental": 6284,
      "commer": 6285,
      "ach": 6286,
      "noted": 6287,
      "emergency": 6288,
      "##aligiran": 6289,
      "191": 6290,
      "##redo": 6291,
      "karanasan": 6292,
      "sitwasyon": 6293,
      "madali": 6294,
      "##ego": 6295,
      "##eks": 6296,
      "issued": 6297,
      "immed": 6298,
      "aid": 6299,
      "39": 6300,
      "complain": 6301,
      "construction": 6302,
      "##top": 6303,
      "##fo": 6304,
      "enco": 6305,
      "nakilala": 6306,
      "comment": 6307,
      "mababa": 6308,
      "ugat": 6309,
      "pip": 6310,
      "election": 6311,
      "album": 6312,
      "alk": 6313,
      "pir": 6314,
      "die": 6315,
      "fan": 6316,
      "##abalik": 6317,
      "samar": 6318,
      "pinagt": 6319,
      "sched": 6320,
      "overseas": 6321,
      "doing": 6322,
      "nagpapakita": 6323,
      "##urch": 6324,
      "##edy": 6325,
      "brief": 6326,
      "##utusan": 6327,
      "individual": 6328,
      "namum": 6329,
      "yugto": 6330,
      "##akasama": 6331,
      "self": 6332,
      "bun": 6333,
      "linya": 6334,
      "criminal": 6335,
      "##umento": 6336,
      "displ": 6337,
      "daang": 6338,
      "##ugin": 6339,
      "chara": 6340,
      "##tom": 6341,
      "##ibilidad": 6342,
      "agriculture": 6343,
      "leading": 6344,
      "energy": 6345,
      "##iramdam": 6346,
      "prib": 6347,
      "itaas": 6348,
      "kur": 6349,
      "clear": 6350,
      "pulo": 6351,
      "chris": 6352,
      "##pak": 6353,
      "##cc": 6354,
      "bic": 6355,
      "pagsasanay": 6356,
      "efforts": 6357,
      "opport": 6358,
      "jac": 6359,
      "##itika": 6360,
      "pagmamahal": 6361,
      "log": 6362,
      "artist": 6363,
      "pasy": 6364,
      "##ibility": 6365,
      "##ument": 6366,
      "joseph": 6367,
      "umiiral": 6368,
      "various": 6369,
      "##indihan": 6370,
      "ds": 6371,
      "##igang": 6372,
      "abo": 6373,
      "sapagka": 6374,
      "malamang": 6375,
      "phys": 6376,
      "2010": 6377,
      "natatang": 6378,
      "dang": 6379,
      "mali": 6380,
      "bida": 6381,
      "##ilalang": 6382,
      "pasay": 6383,
      "reklamo": 6384,
      "sasab": 6385,
      "##endo": 6386,
      "##rast": 6387,
      "itim": 6388,
      "utak": 6389,
      "payo": 6390,
      "quest": 6391,
      "tam": 6392,
      "pinagk": 6393,
      "akda": 6394,
      "##aranas": 6395,
      "previous": 6396,
      "agreement": 6397,
      "che": 6398,
      "change": 6399,
      "##tan": 6400,
      "##iks": 6401,
      "listahan": 6402,
      "pangg": 6403,
      "##ban": 6404,
      "netizens": 6405,
      "##uporta": 6406,
      "mangyari": 6407,
      "##pc": 6408,
      "##ograp": 6409,
      "pract": 6410,
      "##ampa": 6411,
      "guard": 6412,
      "tinanong": 6413,
      "mahabang": 6414,
      "##ulta": 6415,
      "##erto": 6416,
      "##arch": 6417,
      "##atupad": 6418,
      "manggagawa": 6419,
      "44": 6420,
      "supt": 6421,
      "dala": 6422,
      "martes": 6423,
      "##arm": 6424,
      "depend": 6425,
      "##asco": 6426,
      "kinuha": 6427,
      "##ungin": 6428,
      "##unsad": 6429,
      "took": 6430,
      "prins": 6431,
      "pakiramdam": 6432,
      "griyego": 6433,
      "blog": 6434,
      "bers": 6435,
      "dulo": 6436,
      "pd": 6437,
      "talk": 6438,
      "##oob": 6439,
      "inamin": 6440,
      "filed": 6441,
      "room": 6442,
      "##emon": 6443,
      "mater": 6444,
      "narito": 6445,
      "church": 6446,
      "hub": 6447,
      "gun": 6448,
      "roma": 6449,
      "libreng": 6450,
      "nagkaka": 6451,
      "political": 6452,
      "kg": 6453,
      "##ences": 6454,
      "panit": 6455,
      "nakah": 6456,
      "##ipment": 6457,
      "feeling": 6458,
      "started": 6459,
      "countries": 6460,
      "##antong": 6461,
      "pampubl": 6462,
      "labi": 6463,
      "##unahan": 6464,
      "##alok": 6465,
      "lloy": 6466,
      "##ungkahi": 6467,
      "pagkakaiba": 6468,
      "facility": 6469,
      "dun": 6470,
      "gumamit": 6471,
      "cy": 6472,
      "##ances": 6473,
      "andre": 6474,
      "jess": 6475,
      "##uwid": 6476,
      "push": 6477,
      "wind": 6478,
      "tula": 6479,
      "pangkalahatang": 6480,
      "bautista": 6481,
      "request": 6482,
      "gitnang": 6483,
      "cay": 6484,
      "natat": 6485,
      "##ini": 6486,
      "protest": 6487,
      "##ette": 6488,
      "tinatayang": 6489,
      "isinulat": 6490,
      "##ai": 6491,
      "##arte": 6492,
      "ipap": 6493,
      "malays": 6494,
      "##kt": 6495,
      "ready": 6496,
      "won": 6497,
      "##rd": 6498,
      "##ify": 6499,
      "##maang": 6500,
      "##atin": 6501,
      "naip": 6502,
      "##ran": 6503,
      "survey": 6504,
      "##amay": 6505,
      "oriental": 6506,
      "amerikano": 6507,
      "##ively": 6508,
      "suw": 6509,
      "panayam": 6510,
      "buw": 6511,
      "kasund": 6512,
      "##igaw": 6513,
      "roc": 6514,
      "##kl": 6515,
      "kath": 6516,
      "##oles": 6517,
      "##loob": 6518,
      "sotto": 6519,
      "##atibong": 6520,
      "nauna": 6521,
      "##rant": 6522,
      "policy": 6523,
      "releas": 6524,
      "##ikit": 6525,
      "##iwas": 6526,
      "prep": 6527,
      "igin": 6528,
      "western": 6529,
      "bandang": 6530,
      "audi": 6531,
      "tatlo": 6532,
      "stress": 6533,
      "##uon": 6534,
      "programs": 6535,
      "martial": 6536,
      "##ateg": 6537,
      "##imum": 6538,
      "enhan": 6539,
      "street": 6540,
      "##atakbo": 6541,
      "malalaking": 6542,
      "section": 6543,
      "asa": 6544,
      "motor": 6545,
      "pinaniniwala": 6546,
      "demand": 6547,
      "interes": 6548,
      "bless": 6549,
      "coming": 6550,
      "desp": 6551,
      "nakipag": 6552,
      "inilabas": 6553,
      "aim": 6554,
      "makal": 6555,
      "oct": 6556,
      "lope": 6557,
      "resources": 6558,
      "fem": 6559,
      "pampanga": 6560,
      "palaw": 6561,
      "##aft": 6562,
      "york": 6563,
      "magaling": 6564,
      "measures": 6565,
      "##yte": 6566,
      "dulot": 6567,
      "nbi": 6568,
      "##atic": 6569,
      "conv": 6570,
      "contact": 6571,
      "uus": 6572,
      "##ngth": 6573,
      "remedyong": 6574,
      "things": 6575,
      "##ls": 6576,
      "occidental": 6577,
      "190": 6578,
      "nakikipag": 6579,
      "##alities": 6580,
      "persons": 6581,
      "welf": 6582,
      "##uez": 6583,
      "lee": 6584,
      "##hib": 6585,
      "##bol": 6586,
      "confirmed": 6587,
      "arrest": 6588,
      "##ennis": 6589,
      "##ebes": 6590,
      "cro": 6591,
      "welfare": 6592,
      "##ahinga": 6593,
      "nagpa": 6594,
      "##eth": 6595,
      "pinagh": 6596,
      "##unti": 6597,
      "titi": 6598,
      "##bert": 6599,
      "##rain": 6600,
      "##abasa": 6601,
      "reform": 6602,
      "##uted": 6603,
      "iwas": 6604,
      "orig": 6605,
      "miyerk": 6606,
      "disaster": 6607,
      "##abol": 6608,
      "digmaang": 6609,
      "##ria": 6610,
      "acting": 6611,
      "##ugon": 6612,
      "pagkat": 6613,
      "puk": 6614,
      "passeng": 6615,
      "latest": 6616,
      "inaasahang": 6617,
      "league": 6618,
      "ganyan": 6619,
      "kalayaan": 6620,
      "toen": 6621,
      "##esy": 6622,
      "pagbubuntis": 6623,
      "kinik": 6624,
      "van": 6625,
      "kahirapan": 6626,
      "tatay": 6627,
      "nakalipas": 6628,
      "##ished": 6629,
      "41": 6630,
      "dekada": 6631,
      "inaasahan": 6632,
      "pasah": 6633,
      "##ultural": 6634,
      "yong": 6635,
      "kandid": 6636,
      "republika": 6637,
      "bundok": 6638,
      "lola": 6639,
      "##reg": 6640,
      "uli": 6641,
      "##ikat": 6642,
      "championship": 6643,
      "groups": 6644,
      "julia": 6645,
      "went": 6646,
      "facilities": 6647,
      "##isita": 6648,
      "##law": 6649,
      "##amali": 6650,
      "white": 6651,
      "##alagahan": 6652,
      "naga": 6653,
      "finals": 6654,
      "kongreso": 6655,
      "##arez": 6656,
      "##erald": 6657,
      "empley": 6658,
      "deped": 6659,
      "##agandang": 6660,
      "##ging": 6661,
      "ebid": 6662,
      "field": 6663,
      "##inong": 6664,
      "require": 6665,
      "please": 6666,
      "hudyo": 6667,
      "baril": 6668,
      "kabis": 6669,
      "kulang": 6670,
      "boss": 6671,
      "##awakan": 6672,
      "barb": 6673,
      "american": 6674,
      "mw": 6675,
      "youth": 6676,
      "stars": 6677,
      "##ugod": 6678,
      "release": 6679,
      "players": 6680,
      "late": 6681,
      "##aph": 6682,
      "digit": 6683,
      "element": 6684,
      "pananampalataya": 6685,
      "stage": 6686,
      "plant": 6687,
      "195": 6688,
      "humingi": 6689,
      "##akasal": 6690,
      "ofws": 6691,
      "48": 6692,
      "##ersa": 6693,
      "dilg": 6694,
      "nba": 6695,
      "pangalawang": 6696,
      "ganu": 6697,
      "smart": 6698,
      "##ci": 6699,
      "ginanap": 6700,
      "##iwatig": 6701,
      "kc": 6702,
      "teach": 6703,
      "lopez": 6704,
      "hop": 6705,
      "singap": 6706,
      "##uluhan": 6707,
      "prevent": 6708,
      "huwebes": 6709,
      "width": 6710,
      "coll": 6711,
      "##wide": 6712,
      "##alal": 6713,
      "##mitted": 6714,
      "shows": 6715,
      "##ilipat": 6716,
      "kapul": 6717,
      "christmas": 6718,
      "hanay": 6719,
      "pangm": 6720,
      "naunang": 6721,
      "manalo": 6722,
      "corrup": 6723,
      "athlet": 6724,
      "ulan": 6725,
      "##igas": 6726,
      "employment": 6727,
      "identified": 6728,
      "##awid": 6729,
      "future": 6730,
      "schools": 6731,
      "##read": 6732,
      "##dong": 6733,
      "##nap": 6734,
      "##itis": 6735,
      "officers": 6736,
      "##aganda": 6737,
      "find": 6738,
      "##oth": 6739,
      "soon": 6740,
      "##ogn": 6741,
      "opin": 6742,
      "corporation": 6743,
      "crime": 6744,
      "dark": 6745,
      "##agdagang": 6746,
      "too": 6747,
      "korean": 6748,
      "diin": 6749,
      "koponan": 6750,
      "pack": 6751,
      "panig": 6752,
      "##uds": 6753,
      "sarap": 6754,
      "pagkakat": 6755,
      "include": 6756,
      "##lac": 6757,
      "singapore": 6758,
      "ago": 6759,
      "respond": 6760,
      "cristo": 6761,
      "2012": 6762,
      "kasangk": 6763,
      "mahah": 6764,
      "picture": 6765,
      "##erte": 6766,
      "makakat": 6767,
      "##car": 6768,
      "tok": 6769,
      "natagpuan": 6770,
      "##ilbing": 6771,
      "girlfriend": 6772,
      "cut": 6773,
      "kinas": 6774,
      "##22": 6775,
      "##icular": 6776,
      "bituka": 6777,
      "##ahon": 6778,
      "despite": 6779,
      "shall": 6780,
      "roon": 6781,
      "candid": 6782,
      "##yonal": 6783,
      "sumas": 6784,
      "sundalo": 6785,
      "inqu": 6786,
      "nagw": 6787,
      "nawawala": 6788,
      "trib": 6789,
      "##ustuhan": 6790,
      "karagdagang": 6791,
      "pasig": 6792,
      "mainit": 6793,
      "##istro": 6794,
      "rehabilit": 6795,
      "vel": 6796,
      "hong": 6797,
      "courtesy": 6798,
      "union": 6799,
      "##utes": 6800,
      "proud": 6801,
      "modernong": 6802,
      "hinih": 6803,
      "ganun": 6804,
      "##oph": 6805,
      "natit": 6806,
      "higher": 6807,
      "##aap": 6808,
      "##ulation": 6809,
      "shooting": 6810,
      "##ration": 6811,
      "##akin": 6812,
      "tol": 6813,
      "coast": 6814,
      "rosa": 6815,
      "episode": 6816,
      "p5": 6817,
      "feat": 6818,
      "##xas": 6819,
      "speaker": 6820,
      "##osis": 6821,
      "auto": 6822,
      "ran": 6823,
      "##ters": 6824,
      "lubos": 6825,
      "##isi": 6826,
      "engine": 6827,
      "eight": 6828,
      "##ampas": 6829,
      "entry": 6830,
      "viv": 6831,
      "##eal": 6832,
      "diyan": 6833,
      "lumitaw": 6834,
      "mik": 6835,
      "##ikayat": 6836,
      "##iwalang": 6837,
      "##ahay": 6838,
      "##ensiyon": 6839,
      "tamb": 6840,
      "##iber": 6841,
      "mont": 6842,
      "industriya": 6843,
      "salvador": 6844,
      "domest": 6845,
      "wast": 6846,
      "tagumpay": 6847,
      "atom": 6848,
      "rebel": 6849,
      "protection": 6850,
      "employees": 6851,
      "##ilio": 6852,
      "##lyn": 6853,
      "##ampok": 6854,
      "liwanag": 6855,
      "##ories": 6856,
      "##yas": 6857,
      "pagkamatay": 6858,
      "karaniwan": 6859,
      "simpleng": 6860,
      "hanap": 6861,
      "##ota": 6862,
      "krimen": 6863,
      "angeles": 6864,
      "nanalo": 6865,
      "inside": 6866,
      "teleserye": 6867,
      "##utas": 6868,
      "nangangailangan": 6869,
      "opening": 6870,
      "pransiya": 6871,
      "done": 6872,
      "makapang": 6873,
      "##agn": 6874,
      "broad": 6875,
      "wanted": 6876,
      "indonesia": 6877,
      "##uyod": 6878,
      "##iyas": 6879,
      "pangasin": 6880,
      "##akot": 6881,
      "heav": 6882,
      "known": 6883,
      "palat": 6884,
      "cath": 6885,
      "pamamaga": 6886,
      "josh": 6887,
      "##bon": 6888,
      "gastos": 6889,
      "##ampanan": 6890,
      "empleyado": 6891,
      "bash": 6892,
      "sharon": 6893,
      "krus": 6894,
      "55": 6895,
      "unlad": 6896,
      "walong": 6897,
      "##avor": 6898,
      "atty": 6899,
      "mommy": 6900,
      "lider": 6901,
      "communist": 6902,
      "vin": 6903,
      "yang": 6904,
      "implementation": 6905,
      "##ilalim": 6906,
      "189": 6907,
      "##akaw": 6908,
      "paglabag": 6909,
      "fish": 6910,
      "makabagong": 6911,
      "marc": 6912,
      "kaloob": 6913,
      "pagkakas": 6914,
      "recipe": 6915,
      "northern": 6916,
      "buto": 6917,
      "pagbabalik": 6918,
      "##rel": 6919,
      "##abatas": 6920,
      "looking": 6921,
      "pint": 6922,
      "##ayon": 6923,
      "plat": 6924,
      "organiz": 6925,
      "sexy": 6926,
      "300": 6927,
      "##upan": 6928,
      "pep": 6929,
      "##asakit": 6930,
      "model": 6931,
      "masamang": 6932,
      "chance": 6933,
      "dinala": 6934,
      "lock": 6935,
      "magu": 6936,
      "damdamin": 6937,
      "isipan": 6938,
      "karak": 6939,
      "##ky": 6940,
      "posted": 6941,
      "edsa": 6942,
      "##hop": 6943,
      "films": 6944,
      "##yarihang": 6945,
      "mit": 6946,
      "tagu": 6947,
      "##olohikal": 6948,
      "resolution": 6949,
      "aver": 6950,
      "cover": 6951,
      "key": 6952,
      "##ii": 6953,
      "panganib": 6954,
      "##ibigyan": 6955,
      "lots": 6956,
      "dry": 6957,
      "kwento": 6958,
      "true": 6959,
      "authorities": 6960,
      "suspects": 6961,
      "aalis": 6962,
      "##pat": 6963,
      "arg": 6964,
      "ncr": 6965,
      "hilaga": 6966,
      "##atibo": 6967,
      "asawang": 6968,
      "deal": 6969,
      "##gado": 6970,
      "tom": 6971,
      "mahigpit": 6972,
      "squ": 6973,
      "important": 6974,
      "oly": 6975,
      "km": 6976,
      "##pet": 6977,
      "kampanya": 6978,
      "##abihan": 6979,
      "nakatira": 6980,
      "heneral": 6981,
      "club": 6982,
      "coup": 6983,
      "father": 6984,
      "mp": 6985,
      "avenue": 6986,
      "tinutukoy": 6987,
      "needs": 6988,
      "rebounds": 6989,
      "nor": 6990,
      "joy": 6991,
      "commissioner": 6992,
      "sangg": 6993,
      "##side": 6994,
      "##ship": 6995,
      "lord": 6996,
      "##akdang": 6997,
      "##hood": 6998,
      "aside": 6999,
      "##burg": 7000,
      "##empt": 7001,
      "##alakbay": 7002,
      "alang": 7003,
      "espesyal": 7004,
      "mobile": 7005,
      "yum": 7006,
      "sibil": 7007,
      "##ja": 7008,
      "##ipis": 7009,
      "##sala": 7010,
      "##tod": 7011,
      "focus": 7012,
      "pangasinan": 7013,
      "p3": 7014,
      "dswd": 7015,
      "2011": 7016,
      "##antaon": 7017,
      "rnt": 7018,
      "aposto": 7019,
      "emper": 7020,
      "kalalak": 7021,
      "willie": 7022,
      "##impl": 7023,
      "ti": 7024,
      "##arami": 7025,
      "##ipto": 7026,
      "robin": 7027,
      "43": 7028,
      "spots": 7029,
      "fis": 7030,
      "price": 7031,
      "42": 7032,
      "pamahalaang": 7033,
      "##utong": 7034,
      "umaasa": 7035,
      "pagpapa": 7036,
      "##anatili": 7037,
      "studi": 7038,
      "umanong": 7039,
      "india": 7040,
      "manny": 7041,
      "commander": 7042,
      "##ckles": 7043,
      "dail": 7044,
      "pangkaran": 7045,
      "katunayan": 7046,
      "##bp": 7047,
      "freckles": 7048,
      "kanlurang": 7049,
      "karakter": 7050,
      "naisip": 7051,
      "parents": 7052,
      "papunta": 7053,
      "91": 7054,
      "kristiyan": 7055,
      "having": 7056,
      "kagamitan": 7057,
      "##alakad": 7058,
      "taping": 7059,
      "##icles": 7060,
      "##weight": 7061,
      "##etano": 7062,
      "nararamdaman": 7063,
      "##ilian": 7064,
      "##wo": 7065,
      "male": 7066,
      "##tt": 7067,
      "pumap": 7068,
      "rene": 7069,
      "##endoza": 7070,
      "pinagd": 7071,
      "##ars": 7072,
      "##oseks": 7073,
      "51": 7074,
      "##over": 7075,
      "##arto": 7076,
      "lamb": 7077,
      "response": 7078,
      "apostol": 7079,
      "maling": 7080,
      "ten": 7081,
      "##akay": 7082,
      "##hold": 7083,
      "terminal": 7084,
      "released": 7085,
      "mendoza": 7086,
      "daily": 7087,
      "subs": 7088,
      "##pend": 7089,
      "appoint": 7090,
      "increas": 7091,
      "winning": 7092,
      "lacson": 7093,
      "##ilia": 7094,
      "kapanah": 7095,
      "hits": 7096,
      "misis": 7097,
      "pwedeng": 7098,
      "disk": 7099,
      "patients": 7100,
      "bf": 7101,
      "46": 7102,
      "character": 7103,
      "##ayanan": 7104,
      "companies": 7105,
      "##sp": 7106,
      "protocol": 7107,
      "dakilang": 7108,
      "##untahan": 7109,
      "civil": 7110,
      "sweet": 7111,
      "pagpasok": 7112,
      "jack": 7113,
      "omb": 7114,
      "ala": 7115,
      "53": 7116,
      "##zan": 7117,
      "##igilan": 7118,
      "##oke": 7119,
      "diyeta": 7120,
      "franch": 7121,
      "professional": 7122,
      "amid": 7123,
      "paksa": 7124,
      "maguind": 7125,
      "marahil": 7126,
      "contrib": 7127,
      "##entino": 7128,
      "female": 7129,
      "fail": 7130,
      "pagkal": 7131,
      "matery": 7132,
      "##tol": 7133,
      "##awas": 7134,
      "kani": 7135,
      "maiwasan": 7136,
      "mangyayari": 7137,
      "kumpanya": 7138,
      "reports": 7139,
      "available": 7140,
      "pananaliksik": 7141,
      "##ayapaan": 7142,
      "olymp": 7143,
      "##ww": 7144,
      "australia": 7145,
      "sari": 7146,
      "##aham": 7147,
      "kapaligiran": 7148,
      "gatas": 7149,
      "##awit": 7150,
      "particular": 7151,
      "dag": 7152,
      "youtub": 7153,
      "##ukin": 7154,
      "tungo": 7155,
      "##ried": 7156,
      "##ulak": 7157,
      "issues": 7158,
      "sobra": 7159,
      "##ally": 7160,
      "kinalaman": 7161,
      "makuha": 7162,
      "cinema": 7163,
      "boc": 7164,
      "minuto": 7165,
      "upd": 7166,
      "##elling": 7167,
      "##row": 7168,
      "unibersidad": 7169,
      "##ugg": 7170,
      "related": 7171,
      "aks": 7172,
      "scene": 7173,
      "mach": 7174,
      "pasahero": 7175,
      "lif": 7176,
      "##tot": 7177,
      "ngang": 7178,
      "hours": 7179,
      "buntis": 7180,
      "latin": 7181,
      "pisikal": 7182,
      "##antad": 7183,
      "killed": 7184,
      "search": 7185,
      "gerald": 7186,
      "consider": 7187,
      "##erous": 7188,
      "75": 7189,
      "counter": 7190,
      "nangangahulugang": 7191,
      "via": 7192,
      "leyte": 7193,
      "radio": 7194,
      "##die": 7195,
      "doj": 7196,
      "##usalem": 7197,
      "apekt": 7198,
      "estrada": 7199,
      "forward": 7200,
      "crit": 7201,
      "##utions": 7202,
      "##ispo": 7203,
      "##health": 7204,
      "##apatid": 7205,
      "parte": 7206,
      "value": 7207,
      "##ander": 7208,
      "##che": 7209,
      "pakikipagt": 7210,
      "achie": 7211,
      "customs": 7212,
      "history": 7213,
      "##unay": 7214,
      "doming": 7215,
      "nut": 7216,
      "pamamahala": 7217,
      "binay": 7218,
      "pormal": 7219,
      "cayetano": 7220,
      "##akip": 7221,
      "pagpatay": 7222,
      "##ughter": 7223,
      "kabuuan": 7224,
      "match": 7225,
      "offer": 7226,
      "rose": 7227,
      "artik": 7228,
      "maguindanao": 7229,
      "##ipiko": 7230,
      "##laban": 7231,
      "##usahan": 7232,
      "twe": 7233,
      "##uf": 7234,
      "saw": 7235,
      "##oria": 7236,
      "konsep": 7237,
      "currently": 7238,
      "##atura": 7239,
      "abu": 7240,
      "##fect": 7241,
      "saad": 7242,
      "diwa": 7243,
      "gawing": 7244,
      "teritor": 7245,
      "presscon": 7246,
      "##ikot": 7247,
      "##anding": 7248,
      "nagmam": 7249,
      "##aksyon": 7250,
      "sey": 7251,
      "tourn": 7252,
      "##stit": 7253,
      "strength": 7254,
      "double": 7255,
      "##acay": 7256,
      "##ocan": 7257,
      "using": 7258,
      "tanggapan": 7259,
      "gilid": 7260,
      "kaban": 7261,
      "vo": 7262,
      "bunga": 7263,
      "##vement": 7264,
      "enerhiya": 7265,
      "espan": 7266,
      "##ima": 7267,
      "##ikos": 7268,
      "##uses": 7269,
      "##ulangan": 7270,
      "alak": 7271,
      "malaysia": 7272,
      "become": 7273,
      "teknolohiya": 7274,
      "sanggun": 7275,
      "pamumuhay": 7276,
      "lucas": 7277,
      "commercial": 7278,
      "little": 7279,
      "##udad": 7280,
      "libong": 7281,
      "hearing": 7282,
      "2009": 7283,
      "bags": 7284,
      "wish": 7285,
      "lives": 7286,
      "item": 7287,
      "carlos": 7288,
      "proposed": 7289,
      "pek": 7290,
      "siyam": 7291,
      "dfa": 7292,
      "infrast": 7293,
      "##cs": 7294,
      "believe": 7295,
      "laser": 7296,
      "##urance": 7297,
      "morning": 7298,
      "matanda": 7299,
      "tumutulong": 7300,
      "##imp": 7301,
      "utang": 7302,
      "##igtasan": 7303,
      "jenn": 7304,
      "malayo": 7305,
      "later": 7306,
      "block": 7307,
      "youtube": 7308,
      "partido": 7309,
      "inquir": 7310,
      "tapat": 7311,
      "ehers": 7312,
      "pampublikong": 7313,
      "bih": 7314,
      "##self": 7315,
      "##asyo": 7316,
      "taguig": 7317,
      "bala": 7318,
      "ist": 7319,
      "bce": 7320,
      "earth": 7321,
      "##ials": 7322,
      "victims": 7323,
      "##band": 7324,
      "##etnam": 7325,
      "nueva": 7326,
      "ligtas": 7327,
      "kapal": 7328,
      "kalaban": 7329,
      "sinabing": 7330,
      "centers": 7331,
      "##br": 7332,
      "##fe": 7333,
      "kondisyon": 7334,
      "surr": 7335,
      "infrastruct": 7336,
      "alagad": 7337,
      "guy": 7338,
      "narinig": 7339,
      "trill": 7340,
      "inihayag": 7341,
      "philhealth": 7342,
      "##iklo": 7343,
      "nangung": 7344,
      "52": 7345,
      "maw": 7346,
      "common": 7347,
      "##wood": 7348,
      "situation": 7349,
      "recogn": 7350,
      "feb": 7351,
      "complet": 7352,
      "tinanggap": 7353,
      "canada": 7354,
      "##mak": 7355,
      "grace": 7356,
      "##rote": 7357,
      "manunulat": 7358,
      "charges": 7359,
      "yap": 7360,
      "pagkah": 7361,
      "calo": 7362,
      "lic": 7363,
      "channel": 7364,
      "imperyo": 7365,
      "alv": 7366,
      "sasabihin": 7367,
      "everyone": 7368,
      "academ": 7369,
      "ombuds": 7370,
      "##itude": 7371,
      "lloyd": 7372,
      "branch": 7373,
      "kalalakihan": 7374,
      "##orter": 7375,
      "taas": 7376,
      "##east": 7377,
      "consum": 7378,
      "##agas": 7379,
      "##ksto": 7380,
      "safe": 7381,
      "ombudsman": 7382,
      "##ugtong": 7383,
      "oh": 7384,
      "ess": 7385,
      "trillanes": 7386,
      "##omin": 7387,
      "dole": 7388,
      "woman": 7389,
      "equipment": 7390,
      "cred": 7391,
      "agr": 7392,
      "ninyong": 7393,
      "cancer": 7394,
      "##uportahan": 7395,
      "mary": 7396,
      "jeep": 7397,
      "vot": 7398,
      "##istan": 7399,
      "kilos": 7400,
      "involved": 7401,
      "##ibidad": 7402,
      "##atakot": 7403,
      "might": 7404,
      "##utos": 7405,
      "pagtatapos": 7406,
      "sud": 7407,
      "nagtatag": 7408,
      "typ": 7409,
      "kontrol": 7410,
      "expressed": 7411,
      "count": 7412,
      "47": 7413,
      "##ahayan": 7414,
      "direktor": 7415,
      "eg": 7416,
      "fast": 7417,
      "temper": 7418,
      "anth": 7419,
      "income": 7420,
      "pamumuno": 7421,
      "announced": 7422,
      "##uklasan": 7423,
      "##araming": 7424,
      "caloocan": 7425,
      "interior": 7426,
      "nalaman": 7427,
      "samahan": 7428,
      "magkas": 7429,
      "##uwento": 7430,
      "mister": 7431,
      "##uyang": 7432,
      "lgus": 7433,
      "##uksan": 7434,
      "thail": 7435,
      "umu": 7436,
      "mahihirap": 7437,
      "matagumpay": 7438,
      "ipinagb": 7439,
      "esp": 7440,
      "##atil": 7441,
      "reaksiyon": 7442,
      "jon": 7443,
      "kauna": 7444,
      "istr": 7445,
      "lumalabas": 7446,
      "thailand": 7447,
      "boracay": 7448,
      "bra": 7449,
      "eye": 7450,
      "##robers": 7451,
      "##ceed": 7452,
      "##fort": 7453,
      "eat": 7454,
      "resc": 7455,
      "##ilig": 7456,
      "##trabaho": 7457,
      "koleh": 7458,
      "ker": 7459,
      "pagpup": 7460,
      "##bin": 7461,
      "kristiyanismo": 7462,
      "enhanced": 7463,
      "kapalit": 7464,
      "##ray": 7465,
      "riv": 7466,
      "blue": 7467,
      "boses": 7468,
      "##iment": 7469,
      "alf": 7470,
      "kaligtasan": 7471,
      "pasyente": 7472,
      "suliran": 7473,
      "deploy": 7474,
      "taking": 7475,
      "manok": 7476,
      "alkalde": 7477,
      "##ampan": 7478,
      "76": 7479,
      "##ilon": 7480,
      "pasko": 7481,
      "##ayaw": 7482,
      "resort": 7483,
      "magmula": 7484,
      "49": 7485,
      "kesa": 7486,
      "fungi": 7487,
      "##dle": 7488,
      "##angalan": 7489,
      "showed": 7490,
      "yata": 7491,
      "##isin": 7492,
      "excited": 7493,
      "briefing": 7494,
      "##alu": 7495,
      "malinis": 7496,
      "technical": 7497,
      "pund": 7498,
      "exch": 7499,
      "panlipunan": 7500,
      "aud": 7501,
      "domestic": 7502,
      "ideya": 7503,
      "bumubuo": 7504,
      "##ahilig": 7505,
      "relationship": 7506,
      "representatives": 7507,
      "##yay": 7508,
      "##nie": 7509,
      "##ison": 7510,
      "##ctors": 7511,
      "makatulong": 7512,
      "favor": 7513,
      "##apay": 7514,
      "castro": 7515,
      "maikling": 7516,
      "photos": 7517,
      "##aginip": 7518,
      "jay": 7519,
      "kamara": 7520,
      "age": 7521,
      "##adal": 7522,
      "christian": 7523,
      "atay": 7524,
      "bilyon": 7525,
      "wife": 7526,
      "##atao": 7527,
      "foundation": 7528,
      "##awasan": 7529,
      "##ambing": 7530,
      "application": 7531,
      "hor": 7532,
      "gym": 7533,
      "contain": 7534,
      "domin": 7535,
      "##ancing": 7536,
      "trop": 7537,
      "ibigay": 7538,
      "naninirahan": 7539,
      "gaganap": 7540,
      "sakop": 7541,
      "brought": 7542,
      "##osong": 7543,
      "provinces": 7544,
      "ell": 7545,
      "lotseril": 7546,
      "southern": 7547,
      "##hong": 7548,
      "signed": 7549,
      "ded": 7550,
      "##alab": 7551,
      "##ki": 7552,
      "##uta": 7553,
      "##olohiyang": 7554,
      "pagpapak": 7555,
      "vit": 7556,
      "recent": 7557,
      "##igyang": 7558,
      "boto": 7559,
      "##idong": 7560,
      "nagmum": 7561,
      "independ": 7562,
      "##quez": 7563,
      "nasawi": 7564,
      "##iance": 7565,
      "##yunal": 7566,
      "gusali": 7567,
      "endors": 7568,
      "administrasyon": 7569,
      "bangko": 7570,
      "malay": 7571,
      "##ababa": 7572,
      "few": 7573,
      "##ryn": 7574,
      "says": 7575,
      "digital": 7576,
      "hus": 7577,
      "##apekto": 7578,
      "pranses": 7579,
      "kautusan": 7580,
      "##athala": 7581,
      "##mento": 7582,
      "kamak": 7583,
      "infrastructure": 7584,
      "##atauhan": 7585,
      "napat": 7586,
      "funds": 7587,
      "upon": 7588,
      "challenge": 7589,
      "apoy": 7590,
      "kakulangan": 7591,
      "##ellig": 7592,
      "##erate": 7593,
      "allowed": 7594,
      "ly": 7595,
      "##sada": 7596,
      "matemat": 7597,
      "infant": 7598,
      "capac": 7599,
      "##imo": 7600,
      "2000": 7601,
      "barang": 7602,
      "##berg": 7603,
      "clo": 7604,
      "##ubo": 7605,
      "sn": 7606,
      "2007": 7607,
      "ju": 7608,
      "bulating": 7609,
      "humih": 7610,
      "roy": 7611,
      "pagasa": 7612,
      "54": 7613,
      "##alayan": 7614,
      "malab": 7615,
      "underst": 7616,
      "##road": 7617,
      "deputy": 7618,
      "dengue": 7619,
      "suka": 7620,
      "hiwalay": 7621,
      "##phone": 7622,
      "saks": 7623,
      "maagang": 7624,
      "mapapanood": 7625,
      "##ient": 7626,
      "constant": 7627,
      "conducted": 7628,
      "nilalang": 7629,
      "##igat": 7630,
      "paglal": 7631,
      "##inda": 7632,
      "##wiran": 7633,
      "sustain": 7634,
      "impos": 7635,
      "##rong": 7636,
      "master": 7637,
      "##itions": 7638,
      "jim": 7639,
      "approved": 7640,
      "##itz": 7641,
      "kalul": 7642,
      "mill": 7643,
      "palaging": 7644,
      "discuss": 7645,
      "kontrobers": 7646,
      "charge": 7647,
      "magsasaka": 7648,
      "promot": 7649,
      "malalim": 7650,
      "##apatay": 7651,
      "mist": 7652,
      "additional": 7653,
      "##igur": 7654,
      "patakaran": 7655,
      "##asiwa": 7656,
      "chang": 7657,
      "separ": 7658,
      "sos": 7659,
      "##angat": 7660,
      "kathryn": 7661,
      "pagpapal": 7662,
      "peter": 7663,
      "shot": 7664,
      "lou": 7665,
      "nasasak": 7666,
      "britan": 7667,
      "##uing": 7668,
      "56": 7669,
      "emperador": 7670,
      "gagamit": 7671,
      "##ilar": 7672,
      "pagkas": 7673,
      "magkaka": 7674,
      "reason": 7675,
      "teoriya": 7676,
      "isol": 7677,
      "ilegal": 7678,
      "flor": 7679,
      "##ops": 7680,
      "palawan": 7681,
      "##ukt": 7682,
      "2008": 7683,
      "harry": 7684,
      "##erst": 7685,
      "intellig": 7686,
      "magagawa": 7687,
      "attack": 7688,
      "benefici": 7689,
      "##ensiyang": 7690,
      "seed": 7691,
      "merc": 7692,
      "geor": 7693,
      "bri": 7694,
      "##rek": 7695,
      "aari": 7696,
      "parasite": 7697,
      "##ungat": 7698,
      "kompanya": 7699,
      "burd": 7700,
      "seen": 7701,
      "##ahas": 7702,
      "iisa": 7703,
      "##uela": 7704,
      "kalam": 7705,
      "paglilin": 7706,
      "##resyon": 7707,
      "##idge": 7708,
      "##akyat": 7709,
      "advis": 7710,
      "kapanahunan": 7711,
      "kamakalawa": 7712,
      "nadine": 7713,
      "mmda": 7714,
      "ginto": 7715,
      "natatanging": 7716,
      "mabuhay": 7717,
      "recently": 7718,
      "encour": 7719,
      "##sin": 7720,
      "##ape": 7721,
      "suspected": 7722,
      "tournament": 7723,
      "organismo": 7724,
      "bicol": 7725,
      "pinagmulan": 7726,
      "##iso": 7727,
      "sakaling": 7728,
      "##anais": 7729,
      "##anganib": 7730,
      "##alasan": 7731,
      "##adaan": 7732,
      "bangkay": 7733,
      "tumulong": 7734,
      "villar": 7735,
      "kasunduan": 7736,
      "sangkatauhan": 7737,
      "iglesia": 7738,
      "##uryente": 7739,
      "enough": 7740,
      "jake": 7741,
      "roxas": 7742,
      "han": 7743,
      "sangay": 7744,
      "##val": 7745,
      "##usog": 7746,
      "##abuti": 7747,
      "proc": 7748,
      "histor": 7749,
      "tick": 7750,
      "poor": 7751,
      "##ineb": 7752,
      "##unity": 7753,
      "lih": 7754,
      "ipakita": 7755,
      "rosario": 7756,
      "barangays": 7757,
      "##enez": 7758,
      "mi": 7759,
      "65": 7760,
      "##uruan": 7761,
      "shamp": 7762,
      "baga": 7763,
      "accept": 7764,
      "ask": 7765,
      "pow": 7766,
      "grant": 7767,
      "magic": 7768,
      "destin": 7769,
      "basic": 7770,
      "##light": 7771,
      "##iyento": 7772,
      "initi": 7773,
      "halalan": 7774,
      "nations": 7775,
      "bb": 7776,
      "##ingat": 7777,
      "lumikha": 7778,
      "uusapan": 7779,
      "kh": 7780,
      "penal": 7781,
      "gayong": 7782,
      "benep": 7783,
      "##orma": 7784,
      "kakayahang": 7785,
      "exerc": 7786,
      "palatandaan": 7787,
      "robredo": 7788,
      "kinatawan": 7789,
      "average": 7790,
      "science": 7791,
      "##oseksuwal": 7792,
      "masasabi": 7793,
      "altern": 7794,
      "everything": 7795,
      "loss": 7796,
      "##umin": 7797,
      "suot": 7798,
      "position": 7799,
      "##abaan": 7800,
      "immedi": 7801,
      "pia": 7802,
      "##cks": 7803,
      "napansin": 7804,
      "trump": 7805,
      "iniisip": 7806,
      "www": 7807,
      "intr": 7808,
      "electric": 7809,
      "clean": 7810,
      "palasyo": 7811,
      "ey": 7812,
      "immediately": 7813,
      "ground": 7814,
      "##aklak": 7815,
      "study": 7816,
      "maib": 7817,
      "kasarian": 7818,
      "bangs": 7819,
      "tunog": 7820,
      "alemanya": 7821,
      "##udulot": 7822,
      "katap": 7823,
      "meral": 7824,
      "##anak": 7825,
      "karagat": 7826,
      "parser": 7827,
      "atake": 7828,
      "weather": 7829,
      "communities": 7830,
      "nakad": 7831,
      "calab": 7832,
      "blood": 7833,
      "salaysay": 7834,
      "toes": 7835,
      "meralco": 7836,
      "pagdiriwang": 7837,
      "bayani": 7838,
      "cu": 7839,
      "iwan": 7840,
      "kanta": 7841,
      "##isipan": 7842,
      "manonood": 7843,
      "almost": 7844,
      "lorenz": 7845,
      "##uwag": 7846,
      "telev": 7847,
      "##amis": 7848,
      "elias": 7849,
      "##atol": 7850,
      "spread": 7851,
      "initial": 7852,
      "puting": 7853,
      "buwis": 7854,
      "bagyo": 7855,
      "citizens": 7856,
      "bomb": 7857,
      "infantry": 7858,
      "aut": 7859,
      "track": 7860,
      "pagkaraan": 7861,
      "baybay": 7862,
      "##ija": 7863,
      "arro": 7864,
      "russia": 7865,
      "deliv": 7866,
      "communications": 7867,
      "sorry": 7868,
      "trust": 7869,
      "paolo": 7870,
      "drive": 7871,
      "arena": 7872,
      "original": 7873,
      "motors": 7874,
      "drop": 7875,
      "hahaha": 7876,
      "burdock": 7877,
      "tugon": 7878,
      "##awalang": 7879,
      "mahahalagang": 7880,
      "quality": 7881,
      "honor": 7882,
      "estim": 7883,
      "kamag": 7884,
      "consult": 7885,
      "ru": 7886,
      "phone": 7887,
      "teams": 7888,
      "behind": 7889,
      "investment": 7890,
      "##inis": 7891,
      "afric": 7892,
      "tempor": 7893,
      "##dc": 7894,
      "dennis": 7895,
      "palitan": 7896,
      "##igal": 7897,
      "##umpirma": 7898,
      "kalooban": 7899,
      "##erasyon": 7900,
      "toenails": 7901,
      "competition": 7902,
      "fall": 7903,
      "opisina": 7904,
      "matter": 7905,
      "mambabatas": 7906,
      "urged": 7907,
      "kapayapaan": 7908,
      "##iety": 7909,
      "seryeng": 7910,
      "##ubong": 7911,
      "hangganan": 7912,
      "hugis": 7913,
      "binanggit": 7914,
      "haring": 7915,
      "##ivel": 7916,
      "ahensiya": 7917,
      "pinakamataas": 7918,
      "nagsisimula": 7919,
      "##noon": 7920,
      "katan": 7921,
      "kinabuk": 7922,
      "promote": 7923,
      "sangkot": 7924,
      "magkasama": 7925,
      "##agu": 7926,
      "moment": 7927,
      "pm": 7928,
      "events": 7929,
      "paris": 7930,
      "##oda": 7931,
      "punto": 7932,
      "##back": 7933,
      "nahahati": 7934,
      "karapatang": 7935,
      "supreme": 7936,
      "leave": 7937,
      "rum": 7938,
      "dub": 7939,
      "alin": 7940,
      "willi": 7941,
      "##aur": 7942,
      "##fied": 7943,
      "impluw": 7944,
      "gel": 7945,
      "nawalan": 7946,
      "fit": 7947,
      "serve": 7948,
      "##ungg": 7949,
      "provided": 7950,
      "##abal": 7951,
      "##imes": 7952,
      "crisis": 7953,
      "immig": 7954,
      "bond": 7955,
      "cause": 7956,
      "pansamant": 7957,
      "edu": 7958,
      "demok": 7959,
      "intens": 7960,
      "pagn": 7961,
      "display": 7962,
      "mama": 7963,
      "session": 7964,
      "makilala": 7965,
      "crist": 7966,
      "link": 7967,
      "refer": 7968,
      "afternoon": 7969,
      "computer": 7970,
      "ramos": 7971,
      "medic": 7972,
      "##etime": 7973,
      "##rer": 7974,
      "magbibigay": 7975,
      "trial": 7976,
      "##ilik": 7977,
      "tow": 7978,
      "##ungong": 7979,
      "kagand": 7980,
      "kausap": 7981,
      "pinal": 7982,
      "repl": 7983,
      "pacific": 7984,
      "southeast": 7985,
      "##uev": 7986,
      "rh": 7987,
      "vietnam": 7988,
      "nationwide": 7989,
      "nagulat": 7990,
      "kots": 7991,
      "nagsasabi": 7992,
      "caption": 7993,
      "nangg": 7994,
      "soft": 7995,
      "sr": 7996,
      "ugali": 7997,
      "nagsabi": 7998,
      "pribadong": 7999,
      "##ech": 8000,
      "##agon": 8001,
      "pagtatalik": 8002,
      "gene": 8003,
      "husto": 8004,
      "fungal": 8005,
      "##las": 8006,
      "rus": 8007,
      "pork": 8008,
      "##angkin": 8009,
      "tulungan": 8010,
      "##mad": 8011,
      "federal": 8012,
      "##alingan": 8013,
      "##utulong": 8014,
      "student": 8015,
      "lond": 8016,
      "conce": 8017,
      "##zar": 8018,
      "means": 8019,
      "kinabukasan": 8020,
      "##upong": 8021,
      "ipinakita": 8022,
      "kama": 8023,
      "##wor": 8024,
      "universe": 8025,
      "trap": 8026,
      "mamatay": 8027,
      "##idelines": 8028,
      "pawang": 8029,
      "rub": 8030,
      "oro": 8031,
      "57": 8032,
      "tala": 8033,
      "kalinga": 8034,
      "mapa": 8035,
      "nine": 8036,
      "status": 8037,
      "institute": 8038,
      "certific": 8039,
      "##alidad": 8040,
      "unahang": 8041,
      "current": 8042,
      "##eness": 8043,
      "monitoring": 8044,
      "##ukat": 8045,
      "propos": 8046,
      "##estiyon": 8047,
      "##ihiwalay": 8048,
      "beach": 8049,
      "##raft": 8050,
      "soldi": 8051,
      "boxing": 8052,
      "balitang": 8053,
      "##sel": 8054,
      "##ilbi": 8055,
      "inflation": 8056,
      "tagas": 8057,
      "##andez": 8058,
      "mabigyan": 8059,
      "kontrata": 8060,
      "##ilikha": 8061,
      "necess": 8062,
      "mount": 8063,
      "##anaw": 8064,
      "warri": 8065,
      "install": 8066,
      "mc": 8067,
      "marunong": 8068,
      "ramon": 8069,
      "##dom": 8070,
      "try": 8071,
      "##ilib": 8072,
      "evac": 8073,
      "##lus": 8074,
      "natapos": 8075,
      "lower": 8076,
      "celebration": 8077,
      "php2": 8078,
      "dy": 8079,
      "zone": 8080,
      "minor": 8081,
      "##anghal": 8082,
      "##abilang": 8083,
      "kalsada": 8084,
      "pandaigdigang": 8085,
      "economy": 8086,
      "tabi": 8087,
      "napa": 8088,
      "assured": 8089,
      "##si": 8090,
      "pagtanggap": 8091,
      "pressure": 8092,
      "##ikip": 8093,
      "##igi": 8094,
      "gayunman": 8095,
      "tumaas": 8096,
      "impact": 8097,
      "kahoy": 8098,
      "##alye": 8099,
      "##mang": 8100,
      "ehersisyo": 8101,
      "typho": 8102,
      "##pol": 8103,
      "angelica": 8104,
      "elek": 8105,
      "relief": 8106,
      "learning": 8107,
      "pinili": 8108,
      "59": 8109,
      "##ahulugan": 8110,
      "species": 8111,
      "karera": 8112,
      "capacity": 8113,
      "pagtuturo": 8114,
      "liham": 8115,
      "restaur": 8116,
      "gonzales": 8117,
      "##hanap": 8118,
      "##fully": 8119,
      "bagamat": 8120,
      "##ether": 8121,
      "literal": 8122,
      "rules": 8123,
      "nakatakdang": 8124,
      "sampung": 8125,
      "subject": 8126,
      "feed": 8127,
      "tac": 8128,
      "contest": 8129,
      "frank": 8130,
      "whole": 8131,
      "palang": 8132,
      "##apekt": 8133,
      "makaraang": 8134,
      "exchange": 8135,
      "dingdong": 8136,
      "japanese": 8137,
      "teritoryo": 8138,
      "ryan": 8139,
      "komunidad": 8140,
      "tablets": 8141,
      "fly": 8142,
      "ehipto": 8143,
      "cpp": 8144,
      "##lar": 8145,
      "mahilig": 8146,
      "##ae": 8147,
      "obispo": 8148,
      "##action": 8149,
      "##ove": 8150,
      "middle": 8151,
      "pampol": 8152,
      "##igen": 8153,
      "pula": 8154,
      "nilikha": 8155,
      "lind": 8156,
      "tito": 8157,
      "programang": 8158,
      "imperyong": 8159,
      "bigas": 8160,
      "corruption": 8161,
      "intelligence": 8162,
      "malaya": 8163,
      "##etic": 8164,
      "beaut": 8165,
      "kalim": 8166,
      "aprika": 8167,
      "kaluluwa": 8168,
      "##ibid": 8169,
      "gave": 8170,
      "eksper": 8171,
      "diego": 8172,
      "kagan": 8173,
      "pader": 8174,
      "palace": 8175,
      "nagaganap": 8176,
      "sangkap": 8177,
      "##igahan": 8178,
      "abroad": 8179,
      "aalaga": 8180,
      "fig": 8181,
      "##tat": 8182,
      "##erve": 8183,
      "effective": 8184,
      "ungu": 8185,
      "sunog": 8186,
      "dream": 8187,
      "balang": 8188,
      "rebels": 8189,
      "fake": 8190,
      "bonif": 8191,
      "fernando": 8192,
      "shampoo": 8193,
      "tay": 8194,
      "##coming": 8195,
      "##ugali": 8196,
      "jail": 8197,
      "nagpapah": 8198,
      "kumpara": 8199,
      "inis": 8200,
      "##uturo": 8201,
      "getting": 8202,
      "reduction": 8203,
      "kabisera": 8204,
      "kuryente": 8205,
      "seek": 8206,
      "sugatan": 8207,
      "regard": 8208,
      "##iction": 8209,
      "kotse": 8210,
      "##hough": 8211,
      "annivers": 8212,
      "stra": 8213,
      "disip": 8214,
      "insurance": 8215,
      "thing": 8216,
      "active": 8217,
      "organisasyon": 8218,
      "bonifacio": 8219,
      "datos": 8220,
      "inn": 8221,
      "##uga": 8222,
      "niy": 8223,
      "##mc": 8224,
      "kampo": 8225,
      "sult": 8226,
      "muh": 8227,
      "sentro": 8228,
      "kandidato": 8229,
      "kind": 8230,
      "##ubog": 8231,
      "anyway": 8232,
      "##eneo": 8233,
      "fisher": 8234,
      "selula": 8235,
      "##zo": 8236,
      "ordered": 8237,
      "although": 8238,
      "lockdown": 8239,
      "##list": 8240,
      "bahag": 8241,
      "tagap": 8242,
      "physical": 8243,
      "bed": 8244,
      "tanggapin": 8245,
      "##init": 8246,
      "cooperation": 8247,
      "##ains": 8248,
      "ero": 8249,
      "offices": 8250,
      "dti": 8251,
      "netizen": 8252,
      "turk": 8253,
      "purs": 8254,
      "sulu": 8255,
      "##mission": 8256,
      "##ungang": 8257,
      "suppl": 8258,
      "anniversary": 8259,
      "brit": 8260,
      "inom": 8261,
      "assess": 8262,
      "demon": 8263,
      "##ubukan": 8264,
      "lans": 8265,
      "klas": 8266,
      "var": 8267,
      "giving": 8268,
      "individuals": 8269,
      "##uyo": 8270,
      "harapan": 8271,
      "ump": 8272,
      "undersec": 8273,
      "cord": 8274,
      "maya": 8275,
      "hitsura": 8276,
      "tomas": 8277,
      "baboy": 8278,
      "property": 8279,
      "dalhin": 8280,
      "vehicles": 8281,
      "registr": 8282,
      "naghahanap": 8283,
      "kilometro": 8284,
      "kasamahan": 8285,
      "##wel": 8286,
      "isinagawa": 8287,
      "nalang": 8288,
      "distrito": 8289,
      "pagkakataong": 8290,
      "ibinibigay": 8291,
      "##uts": 8292,
      "##erv": 8293,
      "kailanman": 8294,
      "yah": 8295,
      "##atong": 8296,
      "ipa": 8297,
      "dna": 8298,
      "sinis": 8299,
      "##erb": 8300,
      "pamilyang": 8301,
      "tiy": 8302,
      "bob": 8303,
      "pasaling": 8304,
      "pasalingsing": 8305,
      "##of": 8306,
      "remains": 8307,
      "dp": 8308,
      "##amoro": 8309,
      "concerned": 8310,
      "##iful": 8311,
      "##abit": 8312,
      "iniwan": 8313,
      "##ien": 8314,
      "karamdaman": 8315,
      "tangh": 8316,
      "##ialam": 8317,
      "##ahatid": 8318,
      "recr": 8319,
      "##ropri": 8320,
      "pinsala": 8321,
      "pagkuha": 8322,
      "tv5": 8323,
      "##awaran": 8324,
      "uminom": 8325,
      "kapak": 8326,
      "reporters": 8327,
      "ans": 8328,
      "dium": 8329,
      "prices": 8330,
      "panukala": 8331,
      "pakinabang": 8332,
      "pinah": 8333,
      "improve": 8334,
      "bangsamoro": 8335,
      "wedding": 8336,
      "##azar": 8337,
      "alvarez": 8338,
      "58": 8339,
      "vaccine": 8340,
      "ot": 8341,
      "##ansiya": 8342,
      "beneficiaries": 8343,
      "naia": 8344,
      "##inggan": 8345,
      "##abait": 8346,
      "fourth": 8347,
      "joel": 8348,
      "##alikan": 8349,
      "##ille": 8350,
      "musika": 8351,
      "binigyang": 8352,
      "tips": 8353,
      "##ilitaw": 8354,
      "nararapat": 8355,
      "dism": 8356,
      "butas": 8357,
      "komento": 8358,
      "cross": 8359,
      "isla": 8360,
      "partnership": 8361,
      "recorded": 8362,
      "negosy": 8363,
      "nagsasalita": 8364,
      "kahalagahan": 8365,
      "haba": 8366,
      "leo": 8367,
      "mrt": 8368,
      "##yento": 8369,
      "##izing": 8370,
      "##bed": 8371,
      "##emony": 8372,
      "bilis": 8373,
      "isipin": 8374,
      "recomm": 8375,
      "warrant": 8376,
      "##uments": 8377,
      "##abawal": 8378,
      "piolo": 8379,
      "##urnal": 8380,
      "##anded": 8381,
      "weekend": 8382,
      "stock": 8383,
      "conn": 8384,
      "##agutan": 8385,
      "##etiko": 8386,
      "gilas": 8387,
      "arroyo": 8388,
      "coff": 8389,
      "extra": 8390,
      "parts": 8391,
      "firm": 8392,
      "hero": 8393,
      "tumukoy": 8394,
      "murang": 8395,
      "screen": 8396,
      "question": 8397,
      "##angka": 8398,
      "htt": 8399,
      "kadalasan": 8400,
      "rehabilitation": 8401,
      "##ilinan": 8402,
      "panukalang": 8403,
      "munt": 8404,
      "immigration": 8405,
      "store": 8406,
      "papasok": 8407,
      "masakit": 8408,
      "complex": 8409,
      "tweet": 8410,
      "passengers": 8411,
      "activity": 8412,
      "wow": 8413,
      "nasus": 8414,
      "calif": 8415,
      "bakter": 8416,
      "laz": 8417,
      "tinag": 8418,
      "denr": 8419,
      "silic": 8420,
      "type": 8421,
      "nagtatrabaho": 8422,
      "##iguro": 8423,
      "##apektuhan": 8424,
      "paglikha": 8425,
      "joshua": 8426,
      "##irinig": 8427,
      "ecija": 8428,
      "undersecretary": 8429,
      "##ios": 8430,
      "bagyong": 8431,
      "dila": 8432,
      "sales": 8433,
      "##ayuan": 8434,
      "ebolusyon": 8435,
      "makaraan": 8436,
      "apply": 8437,
      "##yung": 8438,
      "starting": 8439,
      "taiwan": 8440,
      "masa": 8441,
      "hiv": 8442,
      "anu": 8443,
      "clark": 8444,
      "english": 8445,
      "europeo": 8446,
      "bayad": 8447,
      "manuel": 8448,
      "tand": 8449,
      "skills": 8450,
      "bagama": 8451,
      "##room": 8452,
      "tita": 8453,
      "mut": 8454,
      "konseho": 8455,
      "aralan": 8456,
      "nc": 8457,
      "pasc": 8458,
      "patungong": 8459,
      "##aktan": 8460,
      "##ni": 8461,
      "grade": 8462,
      "tampok": 8463,
      "og": 8464,
      "tell": 8465,
      "ub": 8466,
      "##ux": 8467,
      "winner": 8468,
      "couple": 8469,
      "radyo": 8470,
      "raym": 8471,
      "pampolitika": 8472,
      "tes": 8473,
      "patrol": 8474,
      "##gas": 8475,
      "naramdaman": 8476,
      "wil": 8477,
      "##tay": 8478,
      "##acing": 8479,
      "kunin": 8480,
      "river": 8481,
      "##cha": 8482,
      "pit": 8483,
      "##cast": 8484,
      "panlabas": 8485,
      "ej": 8486,
      "minister": 8487,
      "pangako": 8488,
      "pagkatao": 8489,
      "##ras": 8490,
      "prosecut": 8491,
      "turned": 8492,
      "porsiyento": 8493,
      "aabot": 8494,
      "aso": 8495,
      "##ble": 8496,
      "##lit": 8497,
      "isina": 8498,
      "##ornia": 8499,
      "der": 8500,
      "viral": 8501,
      "##too": 8502,
      "ceremony": 8503,
      "exist": 8504,
      "##iguez": 8505,
      "##frb": 8506,
      "##cq": 8507,
      "amount": 8508,
      "##awal": 8509,
      "##inaw": 8510,
      "wrink": 8511,
      "panaginip": 8512,
      "ren": 8513,
      "kumalat": 8514,
      "teror": 8515,
      "sultan": 8516,
      "##ware": 8517,
      "magkat": 8518,
      "idol": 8519,
      "##ires": 8520,
      "diumano": 8521,
      "##dan": 8522,
      "buo": 8523,
      "##crib": 8524,
      "##lon": 8525,
      "terms": 8526,
      "lost": 8527,
      "2nd": 8528,
      "alisan": 8529,
      "numero": 8530,
      "ateneo": 8531,
      "##zing": 8532,
      "##osm": 8533,
      "##imate": 8534,
      "ilagay": 8535,
      "surpr": 8536,
      "bakuna": 8537,
      "ginagawang": 8538,
      "fort": 8539,
      "finance": 8540,
      "rivera": 8541,
      "ltfrb": 8542,
      "##apa": 8543,
      "needed": 8544,
      "ibaba": 8545,
      "gradu": 8546,
      "hapones": 8547,
      "magpa": 8548,
      "bumuo": 8549,
      "##atagal": 8550,
      "unguento": 8551,
      "##amas": 8552,
      "##abet": 8553,
      "teachers": 8554,
      "##iman": 8555,
      "chi": 8556,
      "satanas": 8557,
      "dumaan": 8558,
      "##intulot": 8559,
      "400": 8560,
      "personality": 8561,
      "certain": 8562,
      "sinumang": 8563,
      "##ultura": 8564,
      "##ebenta": 8565,
      "mapagk": 8566,
      "motorc": 8567,
      "benj": 8568,
      "giit": 8569,
      "tagal": 8570,
      "wakas": 8571,
      "##ekta": 8572,
      "##topher": 8573,
      "od": 8574,
      "maute": 8575,
      "pantay": 8576,
      "amag": 8577,
      "nagsimulang": 8578,
      "platform": 8579,
      "p4": 8580,
      "dpwh": 8581,
      "##ailalim": 8582,
      "california": 8583,
      "##ango": 8584,
      "nahih": 8585,
      "truck": 8586,
      "##pcion": 8587,
      "minutes": 8588,
      "valley": 8589,
      "##indigan": 8590,
      "hip": 8591,
      "beautiful": 8592,
      "goods": 8593,
      "kit": 8594,
      "daughter": 8595,
      "##ivity": 8596,
      "yaman": 8597,
      "nagkakaisang": 8598,
      "##uparan": 8599,
      "angkop": 8600,
      "nothing": 8601,
      "index": 8602,
      "teksto": 8603,
      "sev": 8604,
      "instead": 8605,
      "finally": 8606,
      "results": 8607,
      "dumi": 8608,
      "siyent": 8609,
      "elektr": 8610,
      "adj": 8611,
      "kawan": 8612,
      "busy": 8613,
      "motorsiklo": 8614,
      "hinah": 8615,
      "fres": 8616,
      "pie": 8617,
      "wall": 8618,
      "##urong": 8619,
      "##ulatan": 8620,
      "##lom": 8621,
      "##yol": 8622,
      "pinip": 8623,
      "humantong": 8624,
      "freed": 8625,
      "weeks": 8626,
      "kolehiyo": 8627,
      "tahimik": 8628,
      "##oing": 8629,
      "kain": 8630,
      "tanda": 8631,
      "cub": 8632,
      "pagw": 8633,
      "pharm": 8634,
      "christopher": 8635,
      "though": 8636,
      "##tc": 8637,
      "kitang": 8638,
      "paghahanap": 8639,
      "kel": 8640,
      "elemento": 8641,
      "miyerkules": 8642,
      "##abago": 8643,
      "##ements": 8644,
      "celebrity": 8645,
      "lumaki": 8646,
      "judge": 8647,
      "##af": 8648,
      "talaan": 8649,
      "cities": 8650,
      "##andum": 8651,
      "mich": 8652,
      "ibalik": 8653,
      "##ilingkod": 8654,
      "konsepto": 8655,
      "panginoong": 8656,
      "witness": 8657,
      "speech": 8658,
      "swim": 8659,
      "prinsip": 8660,
      "pano": 8661,
      "tuluyan": 8662,
      "nutr": 8663,
      "##agana": 8664,
      "pagkakak": 8665,
      "pinamum": 8666,
      "mes": 8667,
      "arts": 8668,
      "dance": 8669,
      "##elyn": 8670,
      "valid": 8671,
      "bsp": 8672,
      "eth": 8673,
      "##ubh": 8674,
      "##antes": 8675,
      "ongoing": 8676,
      "medal": 8677,
      "ces": 8678,
      "##lib": 8679,
      "##alawak": 8680,
      "suliranin": 8681,
      "typhoon": 8682,
      "joey": 8683,
      "memorandum": 8684,
      "hur": 8685,
      "inu": 8686,
      "##olf": 8687,
      "##aced": 8688,
      "comedy": 8689,
      "masayang": 8690,
      "anthony": 8691,
      "adding": 8692,
      "dial": 8693,
      "##yak": 8694,
      "layo": 8695,
      "##don": 8696,
      "concepcion": 8697,
      "paglalakbay": 8698,
      "##akes": 8699,
      "sumagot": 8700,
      "##ties": 8701,
      "panitikan": 8702,
      "##amento": 8703,
      "##ten": 8704,
      "jenny": 8705,
      "deter": 8706,
      "nakatanggap": 8707,
      "sakay": 8708,
      "version": 8709,
      "64": 8710,
      "perman": 8711,
      "##alagaan": 8712,
      "husband": 8713,
      "len": 8714,
      "worker": 8715,
      "85": 8716,
      "##acks": 8717,
      "sinimulan": 8718,
      "gagamitin": 8719,
      "banda": 8720,
      "sahod": 8721,
      "whether": 8722,
      "opportunity": 8723,
      "society": 8724,
      "les": 8725,
      "tumanggap": 8726,
      "brother": 8727,
      "cun": 8728,
      "taken": 8729,
      "bulaga": 8730,
      "producer": 8731,
      "tind": 8732,
      "warriors": 8733,
      "coffee": 8734,
      "pagpili": 8735,
      "instr": 8736,
      "natanggap": 8737,
      "tuluyang": 8738,
      "journal": 8739,
      "impeksiyon": 8740,
      "clin": 8741,
      "siyudad": 8742,
      "63": 8743,
      "wat": 8744,
      "solid": 8745,
      "##ych": 8746,
      "parana": 8747,
      "mg": 8748,
      "palagi": 8749,
      "66": 8750,
      "apart": 8751,
      "##arms": 8752,
      "sumali": 8753,
      "grupong": 8754,
      "robert": 8755,
      "ic": 8756,
      "##angkot": 8757,
      "sandali": 8758,
      "compreh": 8759,
      "consid": 8760,
      "television": 8761,
      "##mel": 8762,
      "gall": 8763,
      "dahan": 8764,
      "ipinahayag": 8765,
      "dos": 8766,
      "guev": 8767,
      "##alimutan": 8768,
      "kata": 8769,
      "german": 8770,
      "pinay": 8771,
      "kalidad": 8772,
      "saya": 8773,
      "amoy": 8774,
      "ship": 8775,
      "serious": 8776,
      "kaarawan": 8777,
      "locsin": 8778,
      "nagsasabing": 8779,
      "istor": 8780,
      "##wise": 8781,
      "##ining": 8782,
      "61": 8783,
      "mosc": 8784,
      "prog": 8785,
      "##istis": 8786,
      "enri": 8787,
      "magsalita": 8788,
      "included": 8789,
      "pinatay": 8790,
      "nakikilala": 8791,
      "particularly": 8792,
      "tondo": 8793,
      "paulit": 8794,
      "tanungin": 8795,
      "heavy": 8796,
      "natuklasan": 8797,
      "##gor": 8798,
      "nilalaman": 8799,
      "kalihim": 8800,
      "silid": 8801,
      "towns": 8802,
      "veter": 8803,
      "##arya": 8804,
      "##alon": 8805,
      "lahi": 8806,
      "iginiit": 8807,
      "pagpip": 8808,
      "surv": 8809,
      "isas": 8810,
      "monte": 8811,
      "palakihin": 8812,
      "##emen": 8813,
      "silicone": 8814,
      "##patuloy": 8815,
      "##uhit": 8816,
      "vehicle": 8817,
      "dotr": 8818,
      "##pio": 8819,
      "paranaque": 8820,
      "napatay": 8821,
      "##een": 8822,
      "appropri": 8823,
      "space": 8824,
      "terr": 8825,
      "hinaharap": 8826,
      "##bc": 8827,
      "minimum": 8828,
      "##ubos": 8829,
      "malawakang": 8830,
      "liga": 8831,
      "unawa": 8832,
      "ven": 8833,
      "71": 8834,
      "summit": 8835,
      "dumalo": 8836,
      "handog": 8837,
      "##sc": 8838,
      "plans": 8839,
      "bilyong": 8840,
      "shine": 8841,
      "arian": 8842,
      "hyd": 8843,
      "pinaniniwalaang": 8844,
      "mainam": 8845,
      "##islat": 8846,
      "moscow": 8847,
      "materyal": 8848,
      "todo": 8849,
      "masarap": 8850,
      "urban": 8851,
      "kapare": 8852,
      "rodriguez": 8853,
      "kagaya": 8854,
      "attend": 8855,
      "ambass": 8856,
      "karne": 8857,
      "##imbest": 8858,
      "nguni": 8859,
      "##uhunan": 8860,
      "##ihood": 8861,
      "##iff": 8862,
      "condition": 8863,
      "hinihin": 8864,
      "acqu": 8865,
      "pantao": 8866,
      "isinasagawa": 8867,
      "##bog": 8868,
      "kids": 8869,
      "recovered": 8870,
      "pagpapatupad": 8871,
      "##ibili": 8872,
      "cellphone": 8873,
      "transfer": 8874,
      "pangkaraniwang": 8875,
      "##retto": 8876,
      "klaseng": 8877,
      "sinundan": 8878,
      "download": 8879,
      "receive": 8880,
      "grabe": 8881,
      "derek": 8882,
      "pick": 8883,
      "boost": 8884,
      "isinus": 8885,
      "aran": 8886,
      "espanyol": 8887,
      "golden": 8888,
      "67": 8889,
      "tanggap": 8890,
      "tumakbo": 8891,
      "saudi": 8892,
      "washing": 8893,
      "##atf": 8894,
      "panloob": 8895,
      "##ogle": 8896,
      "umuwi": 8897,
      "firearms": 8898,
      "explained": 8899,
      "##uhayan": 8900,
      "naku": 8901,
      "naitala": 8902,
      "##uters": 8903,
      "advoc": 8904,
      "naghah": 8905,
      "##pon": 8906,
      "apl": 8907,
      "died": 8908,
      "virt": 8909,
      "angat": 8910,
      "obl": 8911,
      "##akad": 8912,
      "kasan": 8913,
      "siguradong": 8914,
      "alaga": 8915,
      "##ukulang": 8916,
      "mekan": 8917,
      "astr": 8918,
      "##posisyon": 8919,
      "##kin": 8920,
      "##arilyo": 8921,
      "pasok": 8922,
      "idinagdag": 8923,
      "lumapit": 8924,
      "extension": 8925,
      "antique": 8926,
      "opinyon": 8927,
      "housing": 8928,
      "muse": 8929,
      "manipis": 8930,
      "dayuhan": 8931,
      "petition": 8932,
      "declared": 8933,
      "priority": 8934,
      "wrinkles": 8935,
      "inquirer": 8936,
      "tradisyonal": 8937,
      "kant": 8938,
      "tagapagt": 8939,
      "perfect": 8940,
      "##ensa": 8941,
      "enc": 8942,
      "lal": 8943,
      "alert": 8944,
      "inang": 8945,
      "interp": 8946,
      "##osit": 8947,
      "italy": 8948,
      "lut": 8949,
      "pulang": 8950,
      "##anim": 8951,
      "produktong": 8952,
      "ebidensiya": 8953,
      "aaralan": 8954,
      "##abe": 8955,
      "2006": 8956,
      "seb": 8957,
      "katagang": 8958,
      "digong": 8959,
      "dur": 8960,
      "##abak": 8961,
      "tangg": 8962,
      "ipinat": 8963,
      "##amaan": 8964,
      "paglalarawan": 8965,
      "sektor": 8966,
      "##erong": 8967,
      "99": 8968,
      "rock": 8969,
      "troops": 8970,
      "livel": 8971,
      "rmir": 8972,
      "ngipin": 8973,
      "##80": 8974,
      "lumipat": 8975,
      "helm": 8976,
      "pinamumunuan": 8977,
      "##abor": 8978,
      "##ades": 8979,
      "halagang": 8980,
      "pilit": 8981,
      "kaaway": 8982,
      "##rec": 8983,
      "sine": 8984,
      "apo": 8985,
      "saligang": 8986,
      "toe": 8987,
      "libro": 8988,
      "guidelines": 8989,
      "dako": 8990,
      "dalaw": 8991,
      "lega": 8992,
      "russian": 8993,
      "mmff": 8994,
      "freedom": 8995,
      "##amig": 8996,
      "livelihood": 8997,
      "ja": 8998,
      "##65": 8999,
      "magagamit": 9000,
      "epektibo": 9001,
      "ellen": 9002,
      "paglul": 9003,
      "##ihing": 9004,
      "telep": 9005,
      "comprehensive": 9006,
      "##ulations": 9007,
      "perm": 9008,
      "##ulay": 9009,
      "nakaraan": 9010,
      "##uster": 9011,
      "uusap": 9012,
      "##cor": 9013,
      "##ufact": 9014,
      "lindol": 9015,
      "oint": 9016,
      "regulat": 9017,
      "lawyer": 9018,
      "makakatulong": 9019,
      "ferdin": 9020,
      "##arters": 9021,
      "skin": 9022,
      "iniulat": 9023,
      "insp": 9024,
      "negative": 9025,
      "anuman": 9026,
      "tric": 9027,
      "##ugal": 9028,
      "benefit": 9029,
      "##ubay": 9030,
      "bisa": 9031,
      "murder": 9032,
      "az": 9033,
      "manufact": 9034,
      "##ontrol": 9035,
      "detalye": 9036,
      "panun": 9037,
      "depende": 9038,
      "marik": 9039,
      "2005": 9040,
      "homoseksuwal": 9041,
      "##eria": 9042,
      "tatak": 9043,
      "pok": 9044,
      "##uled": 9045,
      "aktibidad": 9046,
      "umaabot": 9047,
      "standard": 9048,
      "apektado": 9049,
      "ferdinand": 9050,
      "##astos": 9051,
      "##utional": 9052,
      "awa": 9053,
      "hust": 9054,
      "##ji": 9055,
      "ibibigay": 9056,
      "palay": 9057,
      "73": 9058,
      "pangunguna": 9059,
      "distribution": 9060,
      "##vert": 9061,
      "flood": 9062,
      "dangerous": 9063,
      "##gang": 9064,
      "abogado": 9065,
      "nakatuon": 9066,
      "luna": 9067,
      "violation": 9068,
      "creat": 9069,
      "karagdagan": 9070,
      "outside": 9071,
      "##amental": 9072,
      "highway": 9073,
      "moises": 9074,
      "pic": 9075,
      "arest": 9076,
      "recover": 9077,
      "hinihinalang": 9078,
      "dokumento": 9079,
      "guevarra": 9080,
      "##bahay": 9081,
      "posibilidad": 9082,
      "##lor": 9083,
      "teen": 9084,
      "wants": 9085,
      "protected": 9086,
      "ninuno": 9087,
      "alamin": 9088,
      "fat": 9089,
      "tren": 9090,
      "bulaklak": 9091,
      "mustasa": 9092,
      "complaint": 9093,
      "alyas": 9094,
      "mangang": 9095,
      "kinakailangang": 9096,
      "parasitiko": 9097,
      "primetime": 9098,
      "##lot": 9099,
      "paint": 9100,
      "ikaapat": 9101,
      "gloria": 9102,
      "islamic": 9103,
      "prepar": 9104,
      "kalaunan": 9105,
      "matukoy": 9106,
      "bataan": 9107,
      "bald": 9108,
      "sumulat": 9109,
      "sugat": 9110,
      "##inebra": 9111,
      "records": 9112,
      "ginebra": 9113,
      "soda": 9114,
      "bituin": 9115,
      "##usyong": 9116,
      "letter": 9117,
      "administrative": 9118,
      "prime": 9119,
      "##mos": 9120,
      "mapanganib": 9121,
      "kahabaan": 9122,
      "bumagsak": 9123,
      "aur": 9124,
      "##loc": 9125,
      "##omp": 9126,
      "loy": 9127,
      "autom": 9128,
      "95": 9129,
      "mike": 9130,
      "magagandang": 9131,
      "kinikilala": 9132,
      "##apal": 9133,
      "##icial": 9134,
      "hands": 9135,
      "mesa": 9136,
      "##rian": 9137,
      "##uridad": 9138,
      "termin": 9139,
      "##yuter": 9140,
      "ahensya": 9141,
      "living": 9142,
      "nagsus": 9143,
      "##lict": 9144,
      "ana": 9145,
      "drivers": 9146,
      "pagtitistis": 9147,
      "1st": 9148,
      "2002": 9149,
      "termino": 9150,
      "protocols": 9151,
      "kaganapan": 9152,
      "tiwala": 9153,
      "cabin": 9154,
      "saring": 9155,
      "kasamang": 9156,
      "artikulo": 9157,
      "kakaibang": 9158,
      "69": 9159,
      "##bigay": 9160,
      "ald": 9161,
      "##inals": 9162,
      "longer": 9163,
      "##anar": 9164,
      "regine": 9165,
      "soldiers": 9166,
      "article": 9167,
      "192": 9168,
      "france": 9169,
      "fash": 9170,
      "##olic": 9171,
      "carlo": 9172,
      "tumawag": 9173,
      "tabletas": 9174,
      "pangilinan": 9175,
      "##icide": 9176,
      "##chen": 9177,
      "damaso": 9178,
      "nakakuha": 9179,
      "usd": 9180,
      "emos": 9181,
      "direksyon": 9182,
      "thr": 9183,
      "plus": 9184,
      "gather": 9185,
      "aims": 9186,
      "hid": 9187,
      "##akh": 9188,
      "##angkop": 9189,
      "rail": 9190,
      "##assy": 9191,
      "constitution": 9192,
      "##vest": 9193,
      "pinto": 9194,
      "pagkilala": 9195,
      "goal": 9196,
      "compos": 9197,
      "##istic": 9198,
      "modelo": 9199,
      "camera": 9200,
      "gumag": 9201,
      "navy": 9202,
      "inak": 9203,
      "capt": 9204,
      "beat": 9205,
      "liter": 9206,
      "##bat": 9207,
      "##ungkol": 9208,
      "straight": 9209,
      "nagkakaroon": 9210,
      "ayos": 9211,
      "iatf": 9212,
      "##rub": 9213,
      "ilong": 9214,
      "tik": 9215,
      "politika": 9216,
      "##ahiwalay": 9217,
      "dim": 9218,
      "pagbib": 9219,
      "sentral": 9220,
      "bawang": 9221,
      "##eless": 9222,
      "acid": 9223,
      "##leta": 9224,
      "##amahal": 9225,
      "assign": 9226,
      "titik": 9227,
      "wait": 9228,
      "respective": 9229,
      "pamunuan": 9230,
      "flag": 9231,
      "fashion": 9232,
      "eric": 9233,
      "pla": 9234,
      "multi": 9235,
      "maaga": 9236,
      "##adali": 9237,
      "across": 9238,
      "nun": 9239,
      "pasasalamat": 9240,
      "schedule": 9241,
      "##umpis": 9242,
      "franchise": 9243,
      "##oring": 9244,
      "hour": 9245,
      "anything": 9246,
      "majority": 9247,
      "culture": 9248,
      "nuc": 9249,
      "pusa": 9250,
      "kanina": 9251,
      "##abayad": 9252,
      "implants": 9253,
      "usa": 9254,
      "maliwanag": 9255,
      "kalye": 9256,
      "araneta": 9257,
      "rescue": 9258,
      "humah": 9259,
      "exercise": 9260,
      "php5": 9261,
      "matandang": 9262,
      "tanyag": 9263,
      "81": 9264,
      "nabatid": 9265,
      "marikina": 9266,
      "restaurant": 9267,
      "iligal": 9268,
      "72": 9269,
      "finish": 9270,
      "sach": 9271,
      "hah": 9272,
      "peters": 9273,
      "supposed": 9274,
      "palad": 9275,
      "battal": 9276,
      "##usta": 9277,
      "shoot": 9278,
      "isabela": 9279,
      "meg": 9280,
      "pagkilos": 9281,
      "dantaon": 9282,
      "##zman": 9283,
      "subst": 9284,
      "pagkahulog": 9285,
      "summer": 9286,
      "malayang": 9287,
      "php3": 9288,
      "ill": 9289,
      "sister": 9290,
      "tinit": 9291,
      "##achment": 9292,
      "##dez": 9293,
      "usapin": 9294,
      "categ": 9295,
      "##istics": 9296,
      "huda": 9297,
      "mapan": 9298,
      "##pal": 9299,
      "##istry": 9300,
      "##upit": 9301,
      "choice": 9302,
      "ingg": 9303,
      "considered": 9304,
      "##isc": 9305,
      "pilosopiya": 9306,
      "##peon": 9307,
      "mabait": 9308,
      "##angel": 9309,
      "##todok": 9310,
      "patient": 9311,
      "som": 9312,
      "ther": 9313,
      "panib": 9314,
      "##pag": 9315,
      "pagbubukas": 9316,
      "comes": 9317,
      "camar": 9318,
      "ministro": 9319,
      "mission": 9320,
      "##uning": 9321,
      "minsang": 9322,
      "##itation": 9323,
      "nabuo": 9324,
      "resign": 9325,
      "gang": 9326,
      "morales": 9327,
      "flow": 9328,
      "imin": 9329,
      "120": 9330,
      "audience": 9331,
      "piling": 9332,
      "68": 9333,
      "62": 9334,
      "##uma": 9335,
      "##uana": 9336,
      "##ably": 9337,
      "attr": 9338,
      "biblia": 9339,
      "libingan": 9340,
      "relihiy": 9341,
      "##ensyon": 9342,
      "dog": 9343,
      "huh": 9344,
      "duty": 9345,
      "arrival": 9346,
      "rafa": 9347,
      "##uly": 9348,
      "iran": 9349,
      "2004": 9350,
      "trying": 9351,
      "##udine": 9352,
      "showing": 9353,
      "lob": 9354,
      "##break": 9355,
      "metropol": 9356,
      "palakasin": 9357,
      "tiniyak": 9358,
      "mayaman": 9359,
      "kasiyahan": 9360,
      "##atiba": 9361,
      "tool": 9362,
      "##erty": 9363,
      "probinsya": 9364,
      "pagsasama": 9365,
      "didn": 9366,
      "##umite": 9367,
      "princ": 9368,
      "##ukha": 9369,
      "##orin": 9370,
      "##omang": 9371,
      "##ukunan": 9372,
      "guzman": 9373,
      "bug": 9374,
      "##igao": 9375,
      "##angang": 9376,
      "fal": 9377,
      "##pm": 9378,
      "corpor": 9379,
      "benefits": 9380,
      "katapusan": 9381,
      "wild": 9382,
      "rise": 9383,
      "pagbabagong": 9384,
      "alc": 9385,
      "shares": 9386,
      "aba": 9387,
      "kasangkapan": 9388,
      "kud": 9389,
      "pagod": 9390,
      "##uklas": 9391,
      "london": 9392,
      "guw": 9393,
      "kiss": 9394,
      "inilagay": 9395,
      "kalahati": 9396,
      "kapakanan": 9397,
      "rat": 9398,
      "table": 9399,
      "2021": 9400,
      "p6": 9401,
      "reveal": 9402,
      "height": 9403,
      "scen": 9404,
      "makamit": 9405,
      "andres": 9406,
      "##house": 9407,
      "mabigat": 9408,
      "##istered": 9409,
      "girls": 9410,
      "chem": 9411,
      "barretto": 9412,
      "ortodok": 9413,
      "brown": 9414,
      "reached": 9415,
      "##inaldo": 9416,
      "bullet": 9417,
      "##untong": 9418,
      "##ound": 9419,
      "basahin": 9420,
      "welcome": 9421,
      "gener": 9422,
      "banta": 9423,
      "kabut": 9424,
      "kaunting": 9425,
      "princess": 9426,
      "##pose": 9427,
      "hih": 9428,
      "kapulungan": 9429,
      "tarlac": 9430,
      "tho": 9431,
      "collect": 9432,
      "micro": 9433,
      "dj": 9434,
      "##ker": 9435,
      "conflict": 9436,
      "spl": 9437,
      "mt": 9438,
      "pabalik": 9439,
      "revol": 9440,
      "shop": 9441,
      "##elasyon": 9442,
      "permit": 9443,
      "masyado": 9444,
      "##iusap": 9445,
      "save": 9446,
      "pagsasagawa": 9447,
      "operating": 9448,
      "viva": 9449,
      "naghihintay": 9450,
[...]
